<pad>	0
<unk>	0
<s>	0
</s>	0
▁the	-2.8892
▁and	-3.49152
▁of	-3.59813
▁to	-3.67299
▁a	-3.85517
s	-4.11229
▁in	-4.16618
▁i	-4.30799
▁he	-4.395
▁was	-4.3998
▁that	-4.44538
▁it	-4.54701
'	-4.70995
▁his	-4.7236
ed	-4.74842
▁had	-4.86544
▁with	-4.91024
▁you	-4.92577
▁as	-4.93793
▁for	-4.97231
ing	-4.98581
▁her	-5.03483
▁	-5.0973
▁but	-5.13662
▁not	-5.14142
▁she	-5.17777
▁is	-5.18732
▁at	-5.24455
▁on	-5.25452
▁be	-5.2621
▁him	-5.39495
▁they	-5.45423
▁by	-5.49968
▁have	-5.51427
▁my	-5.53027
▁this	-5.53091
▁were	-5.53336
▁which	-5.54569
▁all	-5.55616
▁from	-5.59226
ly	-5.60117
▁so	-5.60469
▁one	-5.64248
▁said	-5.64453
▁me	-5.65233
▁we	-5.70663
d	-5.7162
t	-5.7612
▁there	-5.8201
▁no	-5.8473
▁when	-5.86402
▁their	-5.87319
▁an	-5.91493
▁would	-5.9227
▁or	-5.93281
▁them	-5.95668
▁who	-5.98334
y	-6.01194
▁if	-6.01426
▁what	-6.0201
▁are	-6.04947
▁been	-6.05837
▁out	-6.13821
▁up	-6.14252
▁will	-6.22214
▁could	-6.22972
▁then	-6.24364
e	-6.25336
▁man	-6.2954
▁into	-6.30587
▁more	-6.3069
▁do	-6.30893
▁some	-6.36492
▁very	-6.3942
▁now	-6.41935
▁little	-6.44167
▁your	-6.46361
▁about	-6.4674
▁did	-6.47215
▁time	-6.47681
▁than	-6.4822
▁like	-6.50215
▁has	-6.57085
▁upon	-6.5752
▁well	-6.57984
▁other	-6.60085
▁only	-6.61069
▁two	-6.61623
▁any	-6.62634
▁can	-6.63401
▁over	-6.66135
▁our	-6.66583
▁made	-6.67508
▁after	-6.68288
▁before	-6.68651
▁down	-6.70614
▁see	-6.72883
▁great	-6.74132
▁such	-6.74775
▁know	-6.74885
▁old	-6.74989
n	-6.7596
▁day	-6.76636
▁these	-6.76954
▁miss	-6.78541
▁good	-6.79716
▁came	-6.79765
▁us	-6.81186
▁mister	-6.81476
▁should	-6.81866
▁its	-6.82064
▁much	-6.82588
▁how	-6.82879
▁way	-6.83707
▁where	-6.84557
▁never	-6.86141
▁must	-6.86495
▁come	-6.88845
▁back	-6.91846
▁go	-6.92939
▁again	-6.9489
▁first	-6.94949
▁long	-6.97389
▁might	-6.97694
▁himself	-7.00044
▁own	-7.0103
▁may	-7.0181
▁through	-7.0186
▁men	-7.01908
▁even	-7.02379
▁say	-7.02816
▁just	-7.03977
▁went	-7.043
us	-7.072
▁think	-7.077
▁make	-7.0892
▁here	-7.09267
▁house	-7.10118
▁eyes	-7.1098
▁thought	-7.11236
▁without	-7.11977
▁those	-7.12425
▁most	-7.12565
▁life	-7.12963
▁every	-7.1326
▁many	-7.14095
▁away	-7.14451
▁too	-7.15245
▁don	-7.1555
er	-7.18292
▁being	-7.1858
▁get	-7.18747
▁am	-7.18802
▁still	-7.19203
▁nothing	-7.21622
▁while	-7.21746
▁take	-7.23161
▁last	-7.23424
▁hand	-7.23736
▁people	-7.239
▁found	-7.24135
▁though	-7.26326
▁young	-7.26431
▁head	-7.26793
▁yet	-7.27282
▁off	-7.27523
▁three	-7.27527
▁night	-7.2887
▁saw	-7.31947
▁asked	-7.3241
▁face	-7.3258
▁right	-7.3302
▁under	-7.3302
▁same	-7.33239
▁tell	-7.3415
▁new	-7.35167
▁another	-7.36212
▁left	-7.36901
▁put	-7.36959
▁place	-7.37603
▁ever	-7.38694
▁shall	-7.39104
▁once	-7.39142
▁took	-7.40112
▁room	-7.40309
▁father	-7.40852
▁seemed	-7.41083
▁always	-7.41365
ll	-7.42412
▁let	-7.42608
▁why	-7.44049
▁told	-7.44944
st	-7.46138
▁looked	-7.46251
es	-7.46777
▁heard	-7.47048
m	-7.47928
▁soon	-7.4852
▁because	-7.50752
▁work	-7.50847
▁look	-7.52434
▁something	-7.5261
▁give	-7.52815
▁mother	-7.52843
▁things	-7.53082
▁going	-7.54826
▁heart	-7.5523
▁find	-7.55751
▁love	-7.56035
▁mind	-7.56652
▁moment	-7.57522
▁world	-7.58235
▁king	-7.58334
▁far	-7.59426
▁thing	-7.59586
▁home	-7.60067
▁un	-7.60825
▁knew	-7.60916
▁woman	-7.61724
▁each	-7.62112
▁against	-7.62934
▁door	-7.62992
▁having	-7.63048
▁few	-7.6316
▁began	-7.64311
▁sir	-7.64698
▁better	-7.64713
▁yes	-7.64754
▁part	-7.65318
▁side	-7.66332
▁enough	-7.66422
▁years	-7.66671
ness	-7.68616
▁got	-7.6997
▁done	-7.70656
▁seen	-7.71213
▁whole	-7.71341
▁white	-7.71429
▁called	-7.72056
▁girl	-7.72186
▁hundred	-7.72455
▁between	-7.73078
▁morning	-7.7309
ve	-7.7311
re	-7.73363
▁water	-7.74067
▁felt	-7.74347
▁herself	-7.76731
▁half	-7.77777
▁among	-7.78
▁however	-7.7802
▁turned	-7.78407
▁o	-7.78901
▁also	-7.79106
▁t	-7.7923
▁perhaps	-7.79539
▁replied	-7.79989
▁voice	-7.80974
r	-7.81268
▁name	-7.81305
▁does	-7.81324
▁quite	-7.81607
▁course	-7.81761
▁myself	-7.81815
▁oh	-7.81828
▁poor	-7.82412
▁both	-7.83709
▁set	-7.83972
▁gave	-7.84834
▁small	-7.8568
▁sure	-7.85686
▁light	-7.85689
est	-7.85753
▁whom	-7.85983
▁hard	-7.8656
▁al	-7.87242
▁hands	-7.87774
▁toward	-7.87962
al	-7.8851
▁near	-7.88706
▁together	-7.89367
▁days	-7.90169
▁until	-7.90333
▁words	-7.90521
▁want	-7.90633
▁four	-7.91723
▁open	-7.92336
▁anything	-7.92866
▁feet	-7.92882
▁next	-7.931
▁dear	-7.93284
▁stood	-7.9339
▁brought	-7.93874
▁general	-7.95154
▁large	-7.95421
▁best	-7.95642
▁lay	-7.96038
▁five	-7.96484
▁end	-7.97183
▁rest	-7.97312
▁s	-7.97478
▁believe	-7.97653
▁high	-7.97861
▁kind	-7.99555
▁nor	-7.99626
▁looking	-7.99635
▁show	-7.998
▁round	-7.99817
▁money	-7.99951
▁along	-8.00137
▁since	-8.00151
▁rather	-8.00501
▁black	-8.00837
▁full	-8.01302
▁others	-8.01316
▁passed	-8.01575
▁present	-8.01697
▁matter	-8.01741
en	-8.02011
▁indeed	-8.02472
▁twenty	-8.04405
▁country	-8.04434
▁word	-8.04944
▁cried	-8.05007
▁taken	-8.05755
▁child	-8.06438
▁god	-8.06472
▁air	-8.07484
▁uncle	-8.07857
▁less	-8.07891
▁land	-8.07926
▁gone	-8.08309
▁whose	-8.08685
▁sat	-8.08955
▁nature	-8.09088
▁power	-8.0911
▁answered	-8.09196
▁boy	-8.0967
▁john	-8.09918
▁themselves	-8.10007
▁lady	-8.10398
able	-8.1058
▁death	-8.10608
on	-8.10666
▁wife	-8.11249
▁thousand	-8.11512
▁walk	-8.11522
▁true	-8.11569
▁behind	-8.11817
a	-8.12099
▁fire	-8.13179
▁keep	-8.13479
▁short	-8.13653
▁around	-8.13826
▁master	-8.14111
▁friend	-8.14329
▁women	-8.14638
▁certain	-8.14681
▁often	-8.14792
▁hope	-8.15443
▁children	-8.15936
▁till	-8.16034
▁doctor	-8.16636
during	-8.17034
▁point	-8.17326
▁already	-8.17835
▁sent	-8.18119
▁wish	-8.18466
▁help	-8.18571
▁thus	-8.18729
o	-8.18911
▁became	-8.19197
▁leave	-8.1922
▁returned	-8.19923
▁case	-8.20025
▁cannot	-8.2019
▁body	-8.20554
▁didn	-8.21257
▁care	-8.2133
▁alone	-8.21897
▁given	-8.22216
▁speak	-8.22494
▁state	-8.2255
▁everything	-8.22861
▁talk	-8.2333
▁coming	-8.23834
▁fell	-8.24023
▁ground	-8.24124
▁hear	-8.24564
▁held	-8.24678
▁really	-8.2473
▁dead	-8.24746
▁above	-8.24931
▁beautiful	-8.2528
▁order	-8.25347
ry	-8.26364
▁fact	-8.27089
ies	-8.27378
▁city	-8.27934
▁says	-8.28324
▁hour	-8.28349
▁evening	-8.28545
▁fine	-8.28546
▁hair	-8.28669
▁sometimes	-8.29246
i	-8.29393
▁war	-8.29738
▁feel	-8.29876
▁sea	-8.30132
▁captain	-8.30324
▁kept	-8.30696
▁watch	-8.30745
▁dark	-8.30913
▁sight	-8.31651
▁question	-8.3191
▁least	-8.32212
ity	-8.32394
▁become	-8.32827
▁mean	-8.32843
▁call	-8.33223
▁friends	-8.33327
▁family	-8.3333
▁doubt	-8.33784
▁within	-8.33878
▁use	-8.34064
▁whether	-8.34092
▁making	-8.34156
▁six	-8.3482
▁manner	-8.35155
▁suddenly	-8.35753
▁either	-8.36846
▁second	-8.36895
▁red	-8.37025
▁lord	-8.37183
▁thou	-8.37259
▁itself	-8.37338
▁need	-8.37368
▁year	-8.38299
▁town	-8.38327
▁several	-8.38408
▁daughter	-8.38446
▁big	-8.38692
▁earth	-8.38853
▁person	-8.38865
▁strange	-8.38901
▁son	-8.39008
less	-8.39085
▁lost	-8.39288
▁appeared	-8.39541
▁story	-8.39681
▁almo	-8.40629
▁run	-8.40945
▁eye	-8.4095
▁possible	-8.40956
▁able	-8.41043
▁close	-8.41265
▁used	-8.41582
ous	-8.41635
▁human	-8.41636
▁return	-8.41638
▁known	-8.41907
▁continued	-8.42244
▁rose	-8.43097
▁means	-8.43171
▁live	-8.43258
▁street	-8.43292
▁times	-8.43664
▁sound	-8.43978
▁sort	-8.44042
▁foot	-8.44054
▁brother	-8.44151
▁fear	-8.44221
▁answer	-8.44296
▁fair	-8.44339
▁bed	-8.44606
▁clear	-8.44914
▁turn	-8.45224
▁ask	-8.45242
▁reached	-8.45354
▁understand	-8.45818
▁c	-8.46859
▁de	-8.46874
▁ten	-8.46965
▁green	-8.4702
▁won	-8.4703
▁table	-8.47344
▁read	-8.47547
▁therefore	-8.47674
▁prince	-8.47794
▁arms	-8.4782
in	-8.47884
▁followed	-8.47927
▁deep	-8.4798
▁longer	-8.48009
▁church	-8.48066
▁fellow	-8.48125
▁blue	-8.48154
▁business	-8.48532
▁window	-8.48541
▁glad	-8.48589
▁different	-8.4874
▁cold	-8.48863
▁happy	-8.48975
▁reason	-8.49406
▁wood	-8.49431
▁across	-8.49473
▁free	-8.49475
▁else	-8.49867
▁horse	-8.49939
▁form	-8.50039
▁tree	-8.50059
▁snow	-8.5018
▁cause	-8.50556
▁certainly	-8.50663
▁princess	-8.50975
▁peter	-8.52136
▁husband	-8.52591
▁wanted	-8.5269
▁idea	-8.53524
▁feeling	-8.53726
▁d	-8.53767
▁ought	-8.53803
▁bad	-8.5381
▁bring	-8.53823
▁force	-8.54094
▁ready	-8.54312
▁re	-8.54365
▁river	-8.54443
▁carried	-8.54519
▁met	-8.55135
though	-8.55364
▁lived	-8.55406
▁later	-8.55534
▁sun	-8.56117
▁book	-8.56228
▁eighteen	-8.56315
▁strong	-8.56551
most	-8.56553
ation	-8.5726
▁suppose	-8.57449
▁sleep	-8.57609
▁added	-8.57623
▁late	-8.57764
ion	-8.57777
▁party	-8.57891
▁road	-8.57919
▁fall	-8.58197
▁past	-8.58235
▁low	-8.58293
▁taking	-8.58878
▁number	-8.59431
▁letter	-8.59983
▁school	-8.60142
▁pretty	-8.60274
▁trees	-8.60702
▁entered	-8.60814
▁received	-8.61534
ce	-8.6173
ers	-8.61731
▁girls	-8.61942
▁spoke	-8.62096
▁seven	-8.62379
▁hours	-8.62564
▁hold	-8.6273
▁tried	-8.62872
▁pay	-8.63202
▁soul	-8.63479
▁usual	-8.64473
▁wind	-8.64686
▁beyond	-8.64859
▁living	-8.64903
▁forward	-8.64962
▁england	-8.65384
▁opened	-8.66035
▁stone	-8.66249
▁english	-8.66416
▁position	-8.66717
▁blood	-8.67521
▁cut	-8.67657
▁saying	-8.67773
▁ran	-8.68103
▁seem	-8.68254
▁eight	-8.68335
▁truth	-8.68764
th	-8.69046
▁boys	-8.69324
▁wild	-8.69465
h	-8.69495
▁sense	-8.69653
▁struck	-8.69716
▁age	-8.69881
▁doing	-8.70254
▁carry	-8.70386
▁sister	-8.7059
aught	-8.70743
▁spirit	-8.70981
▁subject	-8.71311
▁beauty	-8.71335
▁meet	-8.71523
▁thy	-8.71705
▁law	-8.71775
▁led	-8.718
▁miles	-8.71821
▁arm	-8.71918
▁line	-8.71953
ting	-8.7196
▁remember	-8.71985
▁wonder	-8.72471
▁garden	-8.7254
▁sweet	-8.72731
▁view	-8.72885
▁front	-8.73051
▁trouble	-8.73247
▁nearly	-8.73561
▁silence	-8.74047
▁none	-8.74059
▁account	-8.74425
▁stay	-8.74466
▁chance	-8.74811
▁standing	-8.75042
▁attention	-8.75344
▁further	-8.75894
▁early	-8.7636
▁immediately	-8.76565
▁except	-8.77003
▁grew	-8.771
ng	-8.77468
▁b	-8.77819
▁happened	-8.77958
▁ill	-8.77995
▁rich	-8.78102
▁neither	-8.78251
▁yourself	-8.78281
▁chief	-8.7829
▁p	-8.78595
▁m	-8.78835
▁opinion	-8.7885
▁secret	-8.79103
▁worth	-8.7941
▁purpose	-8.79437
▁object	-8.79443
an	-8.79745
▁change	-8.80107
▁cross	-8.80638
▁company	-8.8068
▁regard	-8.80722
▁forth	-8.81089
▁pleasure	-8.81238
▁thirty	-8.81289
▁interest	-8.81393
▁minutes	-8.81589
▁ha	-8.8178
▁common	-8.81899
▁filled	-8.82118
▁third	-8.8228
▁afraid	-8.82543
▁play	-8.82607
▁wide	-8.82726
▁public	-8.82793
▁youth	-8.82794
▁queen	-8.83533
▁seems	-8.83572
▁stopped	-8.83785
▁count	-8.84077
▁fifty	-8.85046
▁gold	-8.85191
▁wait	-8.85359
▁court	-8.85417
▁started	-8.85446
▁fresh	-8.85567
▁length	-8.85663
▁exclaimed	-8.85696
▁real	-8.86153
▁week	-8.86336
▁bright	-8.86399
▁wonderful	-8.86501
▁remain	-8.86615
▁forest	-8.8664
▁stand	-8.86793
▁character	-8.86863
▁loved	-8.87194
▁enter	-8.87245
▁top	-8.8756
▁instead	-8.8765
▁silent	-8.8775
▁sitting	-8.88983
▁floor	-8.89045
▁w	-8.89352
▁moved	-8.89371
▁ago	-8.89446
▁ga	-8.89481
▁tone	-8.8954
▁service	-8.89623
▁spring	-8.89745
▁died	-8.90024
▁hill	-8.90051
▁warm	-8.90135
▁ship	-8.90209
▁deal	-8.90241
▁act	-8.90368
▁th	-8.90417
▁ah	-8.90623
▁sit	-8.90869
▁impossible	-8.90966
▁bear	-8.91077
▁brown	-8.91136
▁tears	-8.9127
▁boat	-8.91868
▁danger	-8.92299
▁property	-8.9234
▁broken	-8.92629
▁laughed	-8.92739
▁madame	-8.93133
▁saint	-8.93204
▁smile	-8.93381
▁try	-8.93491
▁placed	-8.93612
▁remained	-8.93612
▁london	-8.93713
▁covered	-8.93758
▁appearance	-8.93863
▁figure	-8.93879
▁bit	-8.93881
▁whatever	-8.93898
▁talking	-8.93915
▁scarce	-8.93933
▁mouth	-8.93974
▁jane	-8.94534
▁laid	-8.9461
▁pass	-8.94698
▁thank	-8.94856
▁valley	-8.95117
▁afternoon	-8.95124
▁married	-8.95181
▁happiness	-8.95231
▁army	-8.95425
▁equal	-8.95458
▁outside	-8.95461
▁natural	-8.955
▁please	-8.95542
▁safe	-8.95727
▁government	-8.95814
▁effort	-8.95825
▁desire	-8.96008
▁h	-8.96211
▁gentleman	-8.96548
▁below	-8.96653
▁art	-8.97156
▁society	-8.97264
▁mine	-8.97397
▁step	-8.97422
▁music	-8.97618
▁die	-8.98091
▁winter	-8.98722
▁necessary	-8.98724
▁sky	-8.98749
▁drew	-8.9876
▁occasion	-8.98812
▁entirely	-8.98814
▁quickly	-8.989
▁expression	-8.98904
▁thoughts	-8.98993
▁pleasant	-8.99436
▁chapter	-8.99452
▁complete	-8.99591
▁sign	-8.99635
▁thinking	-8.99661
▁crowd	-8.99889
▁influence	-9.00049
▁beginning	-9.00203
▁visit	-9.00346
▁giving	-9.00353
led	-9.00508
▁mountain	-9.00595
▁food	-9.00598
▁save	-9.00826
▁seeing	-9.00882
▁glance	-9.00889
▁heaven	-9.01213
▁north	-9.01631
▁easy	-9.01735
▁paper	-9.01905
▁distance	-9.01935
▁wrong	-9.02036
▁anne	-9.02379
▁easily	-9.02476
le	-9.0271
as	-9.03125
▁camp	-9.03215
▁terrible	-9.03271
▁turning	-9.03421
▁thick	-9.03508
▁corner	-9.03532
▁send	-9.03658
l	-9.03747
▁beside	-9.03789
▁especially	-9.03993
▁waiting	-9.04008
▁heavy	-9.04038
▁office	-9.04041
▁forget	-9.04069
▁wall	-9.0414
▁hall	-9.04202
▁joy	-9.04383
▁gather	-9.04426
▁conversation	-9.04454
▁blow	-9.04514
▁south	-9.04626
▁dream	-9.04838
▁american	-9.0495
▁killed	-9.05242
▁wished	-9.0533
▁path	-9.05697
▁french	-9.05771
▁broke	-9.05836
▁dinner	-9.05851
▁lips	-9.05857
▁comes	-9.05902
▁expected	-9.06047
▁quiet	-9.06303
▁palace	-9.06325
▁probably	-9.06333
▁simply	-9.06355
▁history	-9.06444
▁straight	-9.06543
▁couldn	-9.06954
▁press	-9.07081
▁nine	-9.07115
▁slowly	-9.07242
▁chair	-9.07409
▁following	-9.0755
▁strength	-9.07782
▁horses	-9.07796
▁effect	-9.078
▁touch	-9.07963
▁pale	-9.07993
▁steps	-9.08065
▁mary	-9.0816
▁race	-9.0822
▁move	-9.08509
▁besides	-9.08524
▁frank	-9.08525
▁changed	-9.08593
▁evil	-9.08766
▁silver	-9.08792
▁single	-9.08868
▁stop	-9.08986
▁handsome	-9.09015
▁particular	-9.09021
▁speaking	-9.09046
▁smiled	-9.09182
▁fight	-9.09533
▁presence	-9.09552
▁express	-9.09582
▁closed	-9.0964
▁attempt	-9.09814
▁moon	-9.09947
▁trying	-9.10067
▁breath	-9.10148
▁duty	-9.10358
▁forty	-9.10446
▁reach	-9.10461
▁sufficient	-9.1048
▁meant	-9.10626
▁village	-9.10712
▁fortune	-9.10721
▁direct	-9.10873
▁soft	-9.10958
▁arrived	-9.11288
▁sh	-9.11542
▁pocket	-9.1156
▁battle	-9.11623
▁born	-9.11725
▁summer	-9.12024
▁self	-9.12041
▁ca	-9.1228
▁lie	-9.12323
▁fish	-9.12483
▁cry	-9.12642
▁field	-9.12663
▁suit	-9.12801
▁legs	-9.12877
▁allowed	-9.12922
▁understood	-9.13051
▁pull	-9.13144
▁woods	-9.13239
▁lake	-9.13309
▁surprise	-9.13339
▁eat	-9.13397
▁sudden	-9.13452
▁spent	-9.13722
▁greater	-9.13802
▁raised	-9.13961
▁houses	-9.1402
▁lower	-9.14193
is	-9.14277
▁shut	-9.14299
▁journey	-9.14425
▁trust	-9.14532
ic	-9.1475
▁bread	-9.14782
▁condition	-9.14989
▁marriage	-9.1507
▁begin	-9.15098
▁latter	-9.1548
or	-9.15673
ful	-9.15784
▁dress	-9.15958
▁seat	-9.15975
▁places	-9.16128
▁eli	-9.16166
▁f	-9.16196
▁car	-9.16275
▁taste	-9.16552
▁follow	-9.16603
▁honour	-9.16613
▁major	-9.1666
ish	-9.16774
▁learn	-9.16883
▁lead	-9.16925
▁bound	-9.16957
▁experience	-9.17232
▁months	-9.17284
clock	-9.1729
▁start	-9.17333
▁observed	-9.17588
▁minute	-9.17604
▁pleased	-9.17678
▁believed	-9.17679
▁learned	-9.17756
▁narrow	-9.17887
▁enemy	-9.18047
▁ladies	-9.1806
▁expect	-9.18292
▁pain	-9.1834
▁sail	-9.18417
▁letters	-9.18638
▁ma	-9.18737
ary	-9.19446
▁grace	-9.1952
▁picture	-9.19664
▁shore	-9.19695
▁box	-9.19833
▁prevent	-9.1988
▁golden	-9.19923
▁declared	-9.20018
▁storm	-9.20228
▁walls	-9.20321
▁comfort	-9.20454
▁makes	-9.21131
▁circumstances	-9.21175
▁guess	-9.21287
▁west	-9.21337
▁simple	-9.21546
▁knows	-9.21553
▁action	-9.2166
▁knowledge	-9.21698
▁leaving	-9.2173
▁finally	-9.21767
▁grand	-9.21837
▁plain	-9.22132
▁result	-9.22225
▁personal	-9.22449
▁cast	-9.22464
▁bank	-9.22555
▁states	-9.22561
▁ancient	-9.22595
▁broad	-9.23042
▁direction	-9.23168
▁various	-9.2327
▁instant	-9.23298
▁yellow	-9.23313
▁twelve	-9.23527
▁aunt	-9.23547
▁gray	-9.23627
▁isabel	-9.23644
▁walking	-9.23711
▁marry	-9.24028
▁escape	-9.24097
▁east	-9.24366
▁bell	-9.24594
▁merely	-9.24787
▁absolute	-9.2488
▁class	-9.24951
▁shot	-9.24965
▁anxious	-9.25189
▁fast	-9.25325
▁laugh	-9.25331
▁hat	-9.25412
▁everybody	-9.25436
▁appear	-9.25464
▁co	-9.25683
▁persons	-9.25706
ever	-9.25731
▁bow	-9.26111
▁hung	-9.26177
▁beneath	-9.26386
▁worse	-9.26423
▁kill	-9.26502
▁evidently	-9.26519
▁se	-9.26848
▁news	-9.26936
▁recogni	-9.27094
▁dressed	-9.27145
▁president	-9.27369
▁sick	-9.27382
▁tall	-9.27727
▁mountains	-9.27804
▁quarter	-9.28041
unless	-9.28123
▁neck	-9.2815
▁spot	-9.28227
▁somewhat	-9.28409
▁dropped	-9.28421
▁exactly	-9.28425
▁darkness	-9.28454
▁repeated	-9.28513
▁billy	-9.28568
▁fallen	-9.28655
▁grass	-9.28784
▁bill	-9.28938
men	-9.29004
▁edge	-9.29012
▁perfect	-9.29034
▁pause	-9.29113
▁piece	-9.29167
▁rock	-9.29171
▁quick	-9.29244
▁grow	-9.29252
▁stranger	-9.29268
ment	-9.29319
▁passage	-9.29354
▁notice	-9.29476
▁isn	-9.29633
▁allow	-9.29785
▁fashion	-9.29934
▁coat	-9.29985
▁afterwards	-9.30025
▁situation	-9.30036
▁star	-9.30194
▁companion	-9.30249
▁fifteen	-9.30327
▁sharp	-9.30445
▁tail	-9.30541
▁grown	-9.30543
▁considered	-9.30739
at	-9.30785
▁difficult	-9.31078
▁cousin	-9.31104
▁decided	-9.31243
▁according	-9.31253
▁sell	-9.31254
▁important	-9.31443
▁honor	-9.31487
▁indians	-9.31598
▁perfectly	-9.31659
▁shop	-9.31897
▁farm	-9.31913
▁carriage	-9.32081
▁stream	-9.32319
▁peace	-9.32354
▁morrow	-9.32369
▁main	-9.32537
▁luck	-9.32671
▁utter	-9.3288
▁york	-9.3303
▁lying	-9.33054
▁welcome	-9.33132
▁suffer	-9.33242
c	-9.33307
▁rebecca	-9.33388
▁gentlemen	-9.334
▁private	-9.33424
▁social	-9.337
▁la	-9.33719
▁board	-9.33819
▁soldiers	-9.34163
▁knowing	-9.34213
▁lose	-9.3426
▁listen	-9.34267
▁game	-9.34268
▁looks	-9.34269
▁speech	-9.34305
▁written	-9.34466
▁forgotten	-9.34516
▁hot	-9.34522
▁alive	-9.34639
▁trail	-9.34687
▁clothes	-9.34743
ty	-9.35106
▁built	-9.35493
▁paid	-9.35582
▁beat	-9.35645
▁prepared	-9.35764
▁discovered	-9.3583
▁france	-9.35892
▁write	-9.3596
▁stick	-9.36004
ance	-9.36044
▁pure	-9.3613
▁indian	-9.36168
▁judge	-9.36197
▁scene	-9.3631
▁thin	-9.36384
▁break	-9.36511
▁weather	-9.36565
▁edward	-9.36567
▁smiling	-9.36567
▁spread	-9.36711
▁success	-9.36946
▁mere	-9.3695
▁rain	-9.36951
▁measure	-9.37136
▁reply	-9.37176
▁passing	-9.37315
▁possession	-9.37415
▁ideas	-9.37445
▁wise	-9.37609
▁breakfast	-9.37623
▁considerable	-9.37654
▁vain	-9.37676
▁tired	-9.37764
▁finished	-9.37895
▁group	-9.37901
▁attack	-9.37958
▁respect	-9.38207
▁toby	-9.38279
▁si	-9.38421
▁receive	-9.38575
▁servant	-9.38579
▁opening	-9.38586
▁tea	-9.38598
▁wine	-9.38624
▁bottom	-9.38707
▁rachel	-9.38707
▁future	-9.38708
▁remembered	-9.38711
▁chamber	-9.3876
▁drawing	-9.39027
▁special	-9.3907
▁slave	-9.39411
▁honest	-9.39601
▁grave	-9.39666
▁played	-9.39719
▁flowers	-9.39728
▁catherine	-9.39808
▁nobody	-9.39848
▁drink	-9.39892
▁heads	-9.39921
▁determined	-9.39956
▁drawn	-9.40028
▁throw	-9.40116
▁moral	-9.40322
▁growing	-9.40343
▁liked	-9.40367
▁catch	-9.40398
▁glass	-9.40883
▁firm	-9.40894
▁contain	-9.4113
▁ye	-9.41262
▁ear	-9.41397
▁roll	-9.41401
▁shape	-9.41732
▁happen	-9.41811
▁mark	-9.41852
▁spite	-9.41862
▁tongue	-9.42042
▁patsy	-9.42047
▁jerry	-9.4205
▁henry	-9.4205
▁due	-9.42202
▁lives	-9.42227
▁fit	-9.42336
▁rise	-9.42656
▁reali	-9.42769
▁presently	-9.42964
▁month	-9.43041
▁cloud	-9.43151
abeth	-9.43153
▁pond	-9.43271
man	-9.43304
▁gentle	-9.43324
▁brain	-9.43349
ted	-9.4342
▁meaning	-9.4361
▁g	-9.43711
▁secure	-9.43887
▁march	-9.4402
▁serious	-9.44042
▁advantage	-9.44158
▁courage	-9.44197
▁affairs	-9.44291
▁george	-9.44343
▁everywhere	-9.44355
▁lucy	-9.44357
▁existence	-9.44389
▁material	-9.4439
▁frightened	-9.44425
▁burst	-9.44448
▁wealth	-9.4446
▁carefully	-9.44477
▁dry	-9.44497
▁island	-9.44512
▁lifted	-9.44634
▁offer	-9.4465
▁sisters	-9.44745
▁promised	-9.44758
▁delight	-9.44913
▁promise	-9.44929
▁offered	-9.45014
▁feelings	-9.45317
▁likely	-9.45444
▁fancy	-9.45515
▁regular	-9.4553
▁justice	-9.45565
▁study	-9.45577
▁building	-9.45666
▁mount	-9.45726
▁difficulty	-9.45768
▁dollars	-9.45914
▁wear	-9.45994
▁fond	-9.46044
▁dog	-9.46058
▁shoulder	-9.46137
▁accept	-9.46224
▁meeting	-9.46309
▁calm	-9.4642
▁wore	-9.46514
▁holding	-9.46617
▁sad	-9.46638
▁teeth	-9.46694
▁charles	-9.46702
ie	-9.46839
▁telling	-9.46948
▁occupied	-9.46999
▁bare	-9.46999
▁papa	-9.47008
▁song	-9.47055
▁surprised	-9.4722
▁mistress	-9.47757
▁leaves	-9.47824
▁sympathy	-9.47865
▁ourselves	-9.47872
▁angry	-9.4788
▁greatly	-9.47904
▁servants	-9.48154
▁books	-9.48484
▁enjoy	-9.48495
▁content	-9.48512
▁bore	-9.48517
▁pray	-9.4854
▁recover	-9.48955
▁altogether	-9.49067
▁task	-9.4912
▁fingers	-9.49136
▁hurt	-9.49229
▁companions	-9.4926
▁mass	-9.49264
▁charming	-9.4937
▁temper	-9.49595
▁guard	-9.49784
▁shown	-9.49837
▁concern	-9.49846
way	-9.49985
▁nice	-9.49986
▁period	-9.50012
▁ball	-9.50148
▁creature	-9.50172
▁windows	-9.50229
▁fruit	-9.50279
▁opposite	-9.50288
▁castle	-9.5029
▁wrote	-9.5031
▁hurry	-9.50345
▁satisfied	-9.50348
▁moving	-9.50382
▁agreed	-9.50498
▁perceived	-9.50579
▁fixed	-9.50636
▁ears	-9.50679
▁explained	-9.50831
▁formed	-9.5114
▁bold	-9.5116
▁hills	-9.51277
▁degree	-9.51429
▁animals	-9.51438
▁dangerous	-9.51604
▁brothers	-9.51612
▁space	-9.51642
▁united	-9.51667
side	-9.51827
▁possessed	-9.51899
▁higher	-9.51904
▁weak	-9.52081
▁parts	-9.52193
▁knock	-9.52214
▁empty	-9.52271
▁pointed	-9.52439
▁noble	-9.52606
▁tender	-9.52631
▁buy	-9.52666
▁finger	-9.52701
▁sword	-9.52746
▁dragon	-9.5277
▁gate	-9.5296
▁lot	-9.53032
▁quietly	-9.53157
ling	-9.53191
▁tom	-9.53288
▁store	-9.53361
▁runn	-9.53793
▁prove	-9.53835
▁individual	-9.53912
▁falling	-9.53958
▁sixteen	-9.53987
▁graham	-9.5403
▁carlyle	-9.5403
▁flew	-9.54032
▁memory	-9.54041
▁farmer	-9.54096
▁bath	-9.54105
▁former	-9.54125
▁resolved	-9.54145
▁maid	-9.54172
▁ruth	-9.54233
ordinary	-9.5447
▁dare	-9.54513
▁support	-9.54665
▁america	-9.54988
▁papers	-9.55011
▁noise	-9.55012
▁shadow	-9.55047
▁proud	-9.55059
▁faces	-9.5509
▁passion	-9.551
▁health	-9.55127
▁terror	-9.5514
▁di	-9.55261
▁curiosity	-9.55318
▁ruin	-9.55319
▁motion	-9.5533
▁faith	-9.55347
▁sheep	-9.55355
▁hotel	-9.55361
▁moments	-9.5538
▁engaged	-9.55404
▁coast	-9.55419
▁creatures	-9.55428
▁thrown	-9.55495
▁whispered	-9.55526
▁train	-9.55556
▁rough	-9.55589
▁rising	-9.55594
▁aware	-9.55601
▁cat	-9.55612
▁blind	-9.55859
▁slight	-9.56066
▁row	-9.56072
▁powerful	-9.56101
ical	-9.56119
ily	-9.56179
▁imagine	-9.56197
▁inside	-9.56209
▁treat	-9.56296
▁touched	-9.56408
▁excited	-9.56451
▁habit	-9.56452
▁ring	-9.5647
▁absence	-9.56611
▁weeks	-9.5663
▁shining	-9.5668
▁bird	-9.56775
▁search	-9.56779
▁dreadful	-9.56786
out	-9.56863
▁required	-9.56889
▁produced	-9.57101
▁shoulders	-9.5711
▁spoken	-9.57189
▁listened	-9.57338
▁fields	-9.57461
▁charge	-9.57706
▁ways	-9.57785
▁nation	-9.5786
▁excitement	-9.5793
▁imagination	-9.57938
▁excellent	-9.57952
▁serve	-9.5804
▁command	-9.58494
▁advanced	-9.58499
▁matters	-9.58711
▁gett	-9.5877
▁bar	-9.58832
▁fill	-9.58899
▁oak	-9.59032
▁supposed	-9.59162
artagnan	-9.59229
▁corporal	-9.5926
▁middle	-9.59294
▁farther	-9.59301
▁sixty	-9.59306
▁priest	-9.59313
▁iron	-9.59363
▁instance	-9.59396
▁asleep	-9.59406
▁club	-9.5946
▁clean	-9.59464
▁breast	-9.5947
▁upper	-9.59492
▁remarked	-9.59562
▁dick	-9.59642
ned	-9.59688
▁failed	-9.59712
▁proved	-9.59773
▁needed	-9.59789
▁questions	-9.59818
▁control	-9.60176
▁ordered	-9.60208
▁system	-9.60255
▁leg	-9.60343
▁mistake	-9.6044
▁plan	-9.60515
▁fool	-9.60595
▁surface	-9.60613
▁professor	-9.60635
▁movement	-9.60653
▁pride	-9.60694
▁ice	-9.60768
▁sake	-9.60803
▁roof	-9.60818
▁station	-9.60837
▁refused	-9.60887
▁excuse	-9.60961
▁calling	-9.60965
▁couple	-9.60965
▁laughing	-9.61021
▁smoke	-9.61038
▁wounded	-9.611
▁deck	-9.61216
▁flat	-9.61607
▁interesting	-9.61721
▁fat	-9.61799
▁marilla	-9.6198
▁relief	-9.61981
▁affair	-9.62023
▁drove	-9.62035
▁dale	-9.62126
▁disappeared	-9.62161
▁clouds	-9.62199
▁ahead	-9.62542
▁price	-9.62765
▁conduct	-9.62828
▁mental	-9.62959
▁proper	-9.63007
▁pair	-9.63048
▁working	-9.63056
▁orders	-9.63058
▁german	-9.63145
▁physical	-9.63166
▁drive	-9.6318
▁frequent	-9.63196
▁faint	-9.63349
▁emperor	-9.63369
▁coronel	-9.63371
▁unknown	-9.63374
▁birds	-9.6339
▁gently	-9.63422
▁add	-9.63503
▁ships	-9.63525
▁fully	-9.63562
▁waited	-9.63606
▁parents	-9.6362
▁travel	-9.63627
▁consider	-9.63643
▁suffering	-9.63953
▁em	-9.64378
▁loud	-9.64528
▁brave	-9.64557
▁knit	-9.64626
▁cottage	-9.64699
▁leap	-9.64709
▁labor	-9.64715
▁interested	-9.64745
▁paris	-9.64757
▁devil	-9.64773
▁arthur	-9.64777
▁occurred	-9.64795
▁hurried	-9.648
▁rate	-9.64861
▁animal	-9.64873
▁busy	-9.649
▁fleet	-9.64997
▁succeeded	-9.65037
▁information	-9.65037
▁pity	-9.65057
▁key	-9.65071
▁render	-9.65096
▁color	-9.6517
cy	-9.6522
▁informed	-9.65221
▁wishes	-9.65237
ook	-9.65255
▁lovely	-9.65379
▁directly	-9.6538
▁explain	-9.65644
▁cool	-9.6568
▁mis	-9.66094
▁rule	-9.66156
▁countenance	-9.66208
▁horror	-9.66208
▁contrary	-9.66209
▁authority	-9.66215
▁hidden	-9.66215
▁huge	-9.66225
▁difference	-9.66235
▁sa	-9.66324
▁religion	-9.66336
▁skin	-9.66421
rs	-9.66548
▁suggested	-9.66577
▁approached	-9.66612
▁settled	-9.66622
▁mile	-9.66704
▁admit	-9.66765
▁belong	-9.66773
▁gun	-9.66812
▁vast	-9.66922
ard	-9.67091
ble	-9.67126
▁doors	-9.67262
▁value	-9.67298
▁events	-9.67301
▁rid	-9.67594
▁loose	-9.67624
▁colonel	-9.67656
▁majesty	-9.6766
▁supper	-9.67684
▁distant	-9.67685
▁awful	-9.67876
▁nearer	-9.68161
▁hoped	-9.68234
rew	-9.68421
▁r	-9.68484
▁desired	-9.68613
▁hearing	-9.68768
▁playing	-9.68804
▁curious	-9.68879
▁conseil	-9.69125
▁century	-9.69126
▁evidence	-9.69126
▁james	-9.69129
▁official	-9.69145
▁cost	-9.69153
▁remarkable	-9.6924
▁arose	-9.69347
▁fourth	-9.69368
▁fly	-9.69401
▁rare	-9.69659
▁picked	-9.69667
▁spirits	-9.69699
▁flash	-9.69812
▁eighty	-9.69829
▁knees	-9.69859
▁fairy	-9.69885
▁sides	-9.69994
▁hypnoti	-9.70224
▁mention	-9.70238
▁heat	-9.70327
▁bitter	-9.70367
▁wound	-9.70418
▁seek	-9.70466
▁join	-9.70554
▁meal	-9.70574
▁seventeen	-9.70577
▁mill	-9.70603
▁conscious	-9.70612
▁college	-9.70618
▁turtle	-9.70618
▁yesterday	-9.70618
▁mouse	-9.70707
▁fault	-9.70763
▁streets	-9.70764
▁ceased	-9.70769
▁language	-9.70797
▁william	-9.70798
▁lean	-9.70922
▁eggs	-9.70973
▁lines	-9.71043
▁loss	-9.71094
▁grey	-9.71099
▁port	-9.71108
▁post	-9.71296
▁sought	-9.71517
▁sold	-9.71713
▁named	-9.71765
▁claim	-9.71959
▁fro	-9.72052
▁sum	-9.72077
▁ba	-9.7215
▁rome	-9.72254
▁bought	-9.72268
▁throat	-9.72272
▁rush	-9.72358
▁prisoner	-9.72417
▁bent	-9.72429
▁increased	-9.72479
▁proceeded	-9.72494
▁intended	-9.72526
▁demanded	-9.72586
noticed	-9.72597
▁cap	-9.72967
▁instantly	-9.72983
▁served	-9.72987
▁pa	-9.73246
▁spend	-9.73248
▁pick	-9.73315
▁splendid	-9.73409
▁smooth	-9.73524
▁elsie	-9.73669
▁seldom	-9.7367
▁request	-9.73672
▁opportunity	-9.73673
▁admiration	-9.73673
▁liberty	-9.73674
▁begun	-9.73684
▁slept	-9.7371
▁admitted	-9.73739
▁apparently	-9.73783
ally	-9.73813
▁wants	-9.73975
▁affection	-9.74013
▁hearts	-9.74026
▁shouted	-9.74031
▁ama	-9.74242
um	-9.74288
▁accepted	-9.744
he	-9.74471
▁moder	-9.74507
▁peculiar	-9.74585
▁voices	-9.74663
to	-9.74674
▁asking	-9.74953
▁favor	-9.75054
▁constant	-9.75146
▁prison	-9.7515
▁stupid	-9.75212
▁advance	-9.75233
▁advice	-9.75233
▁royal	-9.75233
▁innocent	-9.75243
▁mysterious	-9.75275
▁crow	-9.75445
wards	-9.75518
▁philip	-9.75582
▁shade	-9.75634
▁anyone	-9.7564
▁rooms	-9.75642
▁peep	-9.75772
▁laws	-9.75812
▁pu	-9.75892
▁share	-9.75914
▁citi	-9.76144
▁solemn	-9.76169
▁goes	-9.7621
▁tale	-9.76242
▁europe	-9.76718
▁police	-9.76812
▁lincoln	-9.7682
▁political	-9.76837
▁daily	-9.76837
▁shame	-9.76871
▁flight	-9.76957
▁baby	-9.77019
▁fun	-9.77032
▁cabin	-9.77077
▁portion	-9.77082
▁example	-9.7713
▁bay	-9.77164
▁hunting	-9.77179
▁nose	-9.77233
▁writing	-9.7729
▁mad	-9.77621
rry	-9.77799
▁drop	-9.7802
▁attend	-9.78051
▁slow	-9.78133
▁yours	-9.78151
▁l	-9.78369
▁grief	-9.78431
▁kitchen	-9.78432
ught	-9.78433
▁original	-9.78433
▁nevertheless	-9.78435
▁basket	-9.78435
▁victory	-9.78501
▁virginia	-9.78508
▁poet	-9.78575
▁merry	-9.78662
▁vessel	-9.78727
▁physician	-9.78731
▁duke	-9.78759
▁address	-9.7883
▁risk	-9.78871
▁terms	-9.78895
▁oblige	-9.78963
▁joined	-9.79143
▁dull	-9.7917
▁capable	-9.7918
▁double	-9.79187
▁clearly	-9.79325
▁members	-9.79338
▁murder	-9.79421
▁odd	-9.79475
▁seated	-9.79566
▁dreams	-9.79588
▁immediate	-9.79824
▁wa	-9.79872
▁fate	-9.79889
▁eleanor	-9.80071
▁unusual	-9.80091
▁laughter	-9.80103
▁resolution	-9.8011
▁wedding	-9.80159
▁trim	-9.8021
▁visible	-9.8021
▁employed	-9.80312
▁meadow	-9.80395
▁message	-9.80398
▁particularly	-9.80577
▁addressed	-9.80656
▁season	-9.80681
▁le	-9.80962
▁progress	-9.81097
▁harm	-9.81203
▁delay	-9.81204
▁alarm	-9.81356
▁square	-9.8148
▁waters	-9.81497
▁struggle	-9.816
▁mamma	-9.81662
▁popular	-9.81727
▁importance	-9.81742
▁attitude	-9.81751
▁widow	-9.81755
▁brilliant	-9.81765
▁pardon	-9.81774
▁push	-9.81859
▁forms	-9.82086
▁kingdom	-9.82092
▁sorrow	-9.82127
▁bluff	-9.82131
▁delighted	-9.82298
▁income	-9.82431
▁lad	-9.82472
some	-9.82581
▁saved	-9.82601
▁tramp	-9.82638
▁flower	-9.82708
▁jew	-9.82711
▁speed	-9.82971
▁cook	-9.83096
▁type	-9.8315
▁nora	-9.83161
▁ones	-9.83177
▁dance	-9.83242
▁forgive	-9.83296
▁sacrifice	-9.83387
▁religious	-9.83435
▁buried	-9.83436
▁confidence	-9.83437
▁satisfaction	-9.83441
▁flesh	-9.83441
▁dust	-9.83441
▁emma	-9.83441
▁false	-9.83448
▁extraordinary	-9.83452
▁patience	-9.83457
▁dawn	-9.83566
▁crown	-9.83653
▁ho	-9.83743
▁removed	-9.83821
▁lamp	-9.83851
▁acquaintance	-9.83918
▁mentioned	-9.84082
▁venture	-9.8409
am	-9.84101
▁keeping	-9.84309
▁float	-9.84346
▁member	-9.84372
land	-9.8441
▁plent	-9.84411
▁establish	-9.84646
▁fox	-9.84702
ory	-9.84707
▁behold	-9.84726
▁national	-9.84765
▁depend	-9.84935
▁amount	-9.85021
▁pour	-9.85083
▁entrance	-9.85093
▁credit	-9.8513
▁pretend	-9.85141
▁jeff	-9.85152
▁vague	-9.85155
▁priscilla	-9.85158
▁twice	-9.85158
▁conscience	-9.85158
▁washington	-9.85159
▁jason	-9.85159
▁unhappy	-9.85164
▁trade	-9.85172
▁bodies	-9.85244
▁gift	-9.85247
▁rode	-9.85277
▁concluded	-9.85295
▁sailor	-9.85299
g	-9.8531
▁n	-9.85332
▁highest	-9.85339
▁described	-9.85611
▁virtue	-9.85677
▁unfortunate	-9.85723
▁manage	-9.85851
▁pack	-9.85938
▁bag	-9.86012
▁ride	-9.86096
▁mud	-9.86156
▁officers	-9.86199
▁anger	-9.8636
▁eager	-9.8665
▁privilege	-9.86912
▁yield	-9.86912
▁desk	-9.86922
▁otherwise	-9.86924
▁bobby	-9.8693
▁anybody	-9.86942
▁hollow	-9.86947
▁observation	-9.86948
▁somebody	-9.8695
▁ugly	-9.86966
▁foolish	-9.87009
▁startled	-9.87011
▁truly	-9.87026
▁hopes	-9.87049
▁dogs	-9.87109
▁roman	-9.87149
▁visitor	-9.87175
▁skill	-9.87196
▁per	-9.87253
▁gain	-9.87285
▁stage	-9.8729
▁reading	-9.87357
▁plainly	-9.8736
▁spra	-9.87361
▁principle	-9.87441
▁conditions	-9.87867
▁yard	-9.87967
▁dis	-9.88054
▁preserve	-9.88132
▁civili	-9.88298
▁cases	-9.88361
▁violent	-9.88449
▁evident	-9.88472
▁shock	-9.88537
▁sand	-9.88565
▁height	-9.88589
▁points	-9.8862
▁lover	-9.88645
▁unto	-9.88648
▁parliament	-9.88688
▁lieutenant	-9.88698
▁intelligence	-9.88698
▁jesus	-9.88721
▁safety	-9.88726
▁universal	-9.88743
▁pierre	-9.88752
▁surrounding	-9.88773
▁tent	-9.88824
▁inquired	-9.8893
▁wretched	-9.88949
▁stairs	-9.89077
▁soldier	-9.89164
▁powers	-9.89296
▁sentiment	-9.89298
▁elder	-9.8931
▁pieces	-9.89313
▁gained	-9.89346
▁stock	-9.89532
▁relations	-9.89663
▁cow	-9.89793
▁corn	-9.89844
▁fail	-9.8985
▁paint	-9.89853
▁alas	-9.89889
▁note	-9.89901
▁trip	-9.89988
▁discover	-9.90099
▁forces	-9.90135
▁entire	-9.90267
▁flow	-9.90313
▁jim	-9.90452
▁choice	-9.90513
▁meanwhile	-9.90523
▁hastily	-9.90524
▁summon	-9.90541
▁thrust	-9.90542
▁hungry	-9.9056
▁countess	-9.90582
▁grasp	-9.90597
▁louise	-9.90607
▁familiar	-9.90664
▁provided	-9.9073
▁rapidly	-9.90751
▁patient	-9.90794
ne	-9.90894
▁knight	-9.91036
▁successful	-9.91149
▁naturally	-9.91205
▁showing	-9.91322
▁adam	-9.91374
▁enjoyed	-9.91374
▁fled	-9.91419
▁lights	-9.91461
▁marked	-9.91552
▁closely	-9.91624
▁foreign	-9.91788
▁produce	-9.91986
▁fam	-9.92089
▁principal	-9.92111
▁cosette	-9.92366
▁administration	-9.92369
▁magistrate	-9.9237
▁dignity	-9.92389
▁glory	-9.92416
▁dread	-9.92441
▁birth	-9.92455
▁moreover	-9.92521
▁throne	-9.9254
▁plans	-9.92619
▁handed	-9.92668
▁pool	-9.92694
▁affected	-9.9282
▁eric	-9.92892
▁explanation	-9.92902
▁softly	-9.92926
▁distress	-9.93152
▁dared	-9.93219
▁intention	-9.93405
leading	-9.93422
▁ease	-9.93579
▁oblig	-9.93581
▁witness	-9.93586
▁despair	-9.93763
▁milk	-9.93773
▁brief	-9.93998
▁bearing	-9.94028
▁queer	-9.94043
▁rapid	-9.94117
▁spiritual	-9.94126
▁hut	-9.94207
▁ganem	-9.9425
▁marguerite	-9.94253
▁freedom	-9.94254
▁demand	-9.94255
▁unexpected	-9.94256
▁earl	-9.94261
▁education	-9.9427
▁governor	-9.94286
▁rage	-9.94307
▁fought	-9.94329
▁nodded	-9.94342
▁devoted	-9.94369
▁francs	-9.94402
▁clever	-9.94409
▁forgot	-9.94424
▁da	-9.94439
▁band	-9.94441
▁interrupted	-9.94456
▁mortal	-9.94609
▁insist	-9.94648
▁reward	-9.94684
▁willing	-9.947
gged	-9.94701
▁folks	-9.94791
▁peasant	-9.94831
▁sunday	-9.94836
▁stars	-9.9485
▁bride	-9.94905
▁proof	-9.95153
ley	-9.95161
▁kiss	-9.95179
▁holy	-9.95191
▁facts	-9.953
▁civil	-9.95382
▁armed	-9.9543
▁veil	-9.95639
red	-9.95698
▁lies	-9.95745
▁style	-9.95757
▁sevent	-9.95792
▁haven	-9.95903
▁awake	-9.95908
▁figures	-9.9592
▁draw	-9.95977
▁report	-9.95977
▁extreme	-9.96033
▁glimpse	-9.96175
▁representative	-9.96178
▁sunshine	-9.96194
▁sounds	-9.96197
▁gradually	-9.96203
▁stout	-9.96264
▁chosen	-9.9629
▁reality	-9.96343
▁level	-9.96344
▁acquainted	-9.96411
▁e	-9.96413
▁charm	-9.96416
▁driven	-9.96446
se	-9.96753
▁rocks	-9.96754
▁arrival	-9.96776
▁ghost	-9.96787
▁consideration	-9.96809
▁minister	-9.96829
▁mids	-9.97019
tiny	-9.97306
▁rank	-9.97566
▁bo	-9.97591
▁younger	-9.976
ah	-9.97749
▁reasons	-9.97962
ship	-9.98041
▁wheel	-9.9811
▁dutch	-9.98134
▁sylvia	-9.98135
▁nautilus	-9.98136
▁precious	-9.98142
▁wondered	-9.98168
▁compelled	-9.98199
▁possess	-9.98205
▁consciousness	-9.98209
▁slim	-9.98211
it	-9.98221
▁comfortable	-9.98222
▁ocean	-9.98222
▁somewhere	-9.98233
▁overcome	-9.98245
▁active	-9.98363
▁inclined	-9.98377
▁created	-9.9839
▁approaching	-9.98563
▁flying	-9.98748
▁lily	-9.98902
▁easter	-9.98952
▁wings	-9.98987
▁christian	-9.99112
▁chain	-9.99245
▁listening	-9.99251
▁ended	-9.99326
▁heap	-9.99441
wept	-9.99571
▁record	-9.99592
▁desert	-9.99699
ens	-9.99776
▁similar	-9.99917
▁match	-10.0005
▁sleeping	-10.001
▁connection	-10.0015
▁exercise	-10.0015
▁title	-10.0026
▁swift	-10.003
▁kindness	-10.0045
▁salt	-10.0055
▁crime	-10.0069
ctually	-10.0071
▁cover	-10.0072
▁temple	-10.0082
▁million	-10.0084
▁merchant	-10.0087
▁teacher	-10.009
▁banks	-10.0103
the	-10.0108
▁eating	-10.0128
▁sp	-10.0139
▁shout	-10.0169
▁minds	-10.0194
▁stern	-10.0204
▁require	-10.0208
▁enemies	-10.0218
▁mirror	-10.0218
▁melancholy	-10.0218
▁spanish	-10.0218
▁mystery	-10.0218
▁community	-10.0218
▁describe	-10.0218
▁failure	-10.0218
▁david	-10.0219
▁patty	-10.022
▁kate	-10.022
▁shaking	-10.0225
▁alice	-10.0226
▁branches	-10.0227
▁beheld	-10.023
▁magnificent	-10.023
▁desperate	-10.0233
▁announced	-10.0234
▁eagerly	-10.0247
▁everyone	-10.0251
▁hunt	-10.0255
▁objects	-10.0256
▁lack	-10.0286
▁subjects	-10.0288
▁matthew	-10.0288
▁jo	-10.0288
▁voyage	-10.0289
ied	-10.0292
▁impression	-10.0292
▁tails	-10.0293
▁modest	-10.0297
▁shoot	-10.0299
▁recall	-10.0301
▁favour	-10.0301
▁bridge	-10.0321
▁fighting	-10.0333
▁affect	-10.0336
▁stared	-10.0341
▁pace	-10.0369
one	-10.0378
▁examine	-10.0382
▁udo	-10.0382
▁beg	-10.0397
▁kindly	-10.0407
board	-10.0409
▁regarded	-10.0422
▁eleven	-10.0422
▁stuff	-10.0426
▁district	-10.0426
▁forehead	-10.0427
▁dancing	-10.0428
▁bobo	-10.0429
▁treatment	-10.0431
▁scattered	-10.0431
▁ashamed	-10.0433
▁sank	-10.0438
▁severe	-10.0444
▁maintain	-10.0451
▁extremely	-10.0453
▁careful	-10.0456
▁appeal	-10.0458
▁becoming	-10.0461
▁element	-10.0463
▁blame	-10.0466
▁discuss	-10.0469
▁singing	-10.0475
▁gen	-10.0487
▁hast	-10.0489
▁painful	-10.0494
▁nurse	-10.0496
▁newspaper	-10.0502
▁christ	-10.0504
▁pipe	-10.052
▁names	-10.0538
▁stiff	-10.0545
▁pre	-10.0546
▁effects	-10.0567
▁nest	-10.058
▁lighted	-10.0581
▁recent	-10.059
▁circle	-10.0593
▁con	-10.0609
▁cruel	-10.0612
▁range	-10.0617
▁sole	-10.0619
▁wicked	-10.0622
▁aid	-10.0622
▁hole	-10.0623
▁method	-10.0626
▁fellows	-10.0627
▁nights	-10.0633
▁nineteen	-10.0635
▁monsieur	-10.0639
▁profound	-10.0639
▁passenger	-10.0639
▁useful	-10.064
▁development	-10.064
▁necessity	-10.064
▁marius	-10.0641
▁agreeable	-10.0643
▁household	-10.0646
▁proportion	-10.0648
▁baron	-10.0652
▁gloomy	-10.0656
▁cities	-10.066
▁smith	-10.0663
▁accustom	-10.0664
▁increase	-10.0665
▁separated	-10.0673
▁hate	-10.0679
▁features	-10.069
▁owner	-10.0699
▁hanging	-10.0699
▁ben	-10.0708
▁council	-10.0719
▁instrument	-10.0721
▁afterward	-10.0728
▁suggestion	-10.073
▁wishing	-10.0737
▁host	-10.0737
▁j	-10.0744
treated	-10.0752
ver	-10.0757
▁weight	-10.0774
▁helped	-10.0789
▁gives	-10.079
▁hated	-10.0797
▁cheer	-10.082
▁nervous	-10.0831
▁accident	-10.0837
▁fa	-10.0839
▁southern	-10.0839
▁composed	-10.0842
▁thorough	-10.0852
▁piano	-10.0856
▁astonishment	-10.0856
▁fifth	-10.0856
▁compliment	-10.086
▁possibl	-10.0862
▁addition	-10.0862
▁practice	-10.0868
▁masters	-10.0876
▁wandering	-10.0877
▁wandered	-10.0879
▁russian	-10.088
▁western	-10.0881
▁annie	-10.0884
▁wi	-10.0888
ying	-10.0888
▁exchange	-10.089
▁destroyed	-10.0909
▁bloom	-10.0919
▁waves	-10.0927
▁towns	-10.0929
▁beard	-10.0937
▁cliff	-10.0945
▁native	-10.0947
▁escaped	-10.0948
▁science	-10.0949
▁stretch	-10.095
▁block	-10.0951
▁cheek	-10.0952
▁strike	-10.0956
▁approach	-10.096
▁breaking	-10.0961
▁milita	-10.1004
▁stepp	-10.1007
▁stands	-10.1013
te	-10.1043
▁remind	-10.1049
▁immense	-10.1055
▁shepherd	-10.1075
▁pen	-10.1077
▁ferko	-10.1078
▁negro	-10.1078
▁natasha	-10.1078
▁enormous	-10.1078
▁landscape	-10.1078
▁lawyer	-10.1079
▁description	-10.1079
▁assistance	-10.1079
hook	-10.108
▁species	-10.1081
▁atmosphere	-10.1081
▁edith	-10.1082
▁leaf	-10.1083
▁betray	-10.1085
▁exhausted	-10.1085
▁choose	-10.1086
▁surrounded	-10.1087
▁appointed	-10.109
▁mercy	-10.1092
▁assured	-10.1097
▁nations	-10.1098
▁vote	-10.1102
▁resumed	-10.1103
▁helen	-10.1109
▁frame	-10.1114
▁nay	-10.1116
▁ideal	-10.1121
▁shouting	-10.1121
▁regret	-10.1124
▁works	-10.1124
▁twist	-10.1126
▁obtained	-10.1128
▁suggest	-10.1129
▁accordingly	-10.1134
stretched	-10.1155
▁pitch	-10.1164
▁argument	-10.1168
▁troops	-10.1169
▁commander	-10.1185
ist	-10.1186
▁rear	-10.1196
▁fishing	-10.1201
▁crying	-10.1203
▁win	-10.1209
▁gay	-10.1221
▁snapp	-10.1221
▁officer	-10.1222
and	-10.1233
▁mus	-10.1247
▁consent	-10.1249
▁el	-10.1255
▁threaten	-10.1256
▁butter	-10.1256
by	-10.1257
▁goods	-10.126
▁avoid	-10.1264
▁fir	-10.1283
▁jimm	-10.1289
▁artist	-10.129
▁actual	-10.1291
▁branch	-10.1298
ton	-10.1305
▁female	-10.1305
▁tilney	-10.1305
▁literature	-10.1305
▁families	-10.1306
▁orchard	-10.1306
▁ambition	-10.1306
▁trembling	-10.1306
▁marble	-10.1306
▁diana	-10.1306
▁energy	-10.1307
▁june	-10.1309
▁driving	-10.131
▁stories	-10.131
▁brownie	-10.1312
▁astonished	-10.1314
▁afford	-10.1315
▁generous	-10.1322
▁maybe	-10.1327
▁accomplished	-10.1332
▁worst	-10.1332
▁sensible	-10.1333
▁lodge	-10.1338
▁interests	-10.1342
▁slightly	-10.1346
▁leaning	-10.1348
▁sighed	-10.1352
▁apart	-10.1371
▁imagined	-10.1383
▁useless	-10.1387
▁superior	-10.1394
▁goodness	-10.14
▁machine	-10.1401
▁dim	-10.1422
▁trial	-10.1424
▁thunder	-10.1437
▁hide	-10.1437
▁cheeks	-10.1443
▁thanks	-10.1455
▁millions	-10.1459
▁falls	-10.1479
▁retreat	-10.148
▁yards	-10.1484
▁unc	-10.1505
▁refuse	-10.1509
▁theory	-10.1515
▁villefort	-10.1538
▁essential	-10.1538
▁expedition	-10.1538
▁library	-10.1538
▁purple	-10.1538
▁grandfather	-10.1538
▁destruction	-10.1539
▁likewise	-10.154
▁committee	-10.154
▁cheese	-10.154
lly	-10.1541
▁swallow	-10.1543
▁beloved	-10.1544
▁crew	-10.1545
▁abroad	-10.155
▁st	-10.1555
▁convinced	-10.1555
▁multitude	-10.1561
▁haste	-10.1564
▁discovery	-10.1568
▁k	-10.1569
▁hastened	-10.157
▁sang	-10.1575
▁older	-10.1578
▁flock	-10.1581
▁setting	-10.1581
▁includ	-10.1583
▁suspected	-10.1583
▁craft	-10.159
▁yo	-10.1595
▁manners	-10.161
▁depths	-10.1612
▁sounded	-10.1623
▁cordial	-10.1626
how	-10.1632
▁gallant	-10.1635
▁wash	-10.1637
▁apartment	-10.1642
▁build	-10.1642
▁tower	-10.1646
▁consequence	-10.1646
rushed	-10.168
▁string	-10.1683
▁vision	-10.1693
▁event	-10.1698
▁distinct	-10.1719
▁pri	-10.1724
▁forever	-10.1727
▁fearful	-10.1735
▁funn	-10.174
▁prisoners	-10.1747
▁parted	-10.1749
▁destroy	-10.1749
▁fierce	-10.1751
▁sweep	-10.1752
▁unconscious	-10.1759
▁thirteen	-10.1776
▁hyacinth	-10.1776
▁perceval	-10.1776
▁barricade	-10.1776
▁enthusiasm	-10.1776
▁reputation	-10.1776
▁gratitude	-10.1777
▁job	-10.1777
▁reveal	-10.1777
▁mercer	-10.1778
▁psyche	-10.1779
▁crawley	-10.178
▁invitation	-10.1782
▁miserable	-10.1783
▁july	-10.1795
▁goose	-10.1795
▁hunger	-10.1799
▁retired	-10.1802
▁mingled	-10.1803
▁classes	-10.1809
uttered	-10.1815
▁bra	-10.1822
▁descended	-10.1826
▁heavi	-10.1828
▁adventure	-10.183
▁rang	-10.184
▁disposed	-10.1843
▁roots	-10.1845
▁roar	-10.1851
▁shoes	-10.1852
▁continue	-10.1853
▁someone	-10.1859
▁brush	-10.186
▁proceed	-10.1866
ism	-10.1867
▁neighbors	-10.1871
▁steep	-10.1875
▁pictures	-10.188
▁savage	-10.1884
▁colored	-10.1887
▁ends	-10.1888
▁bottle	-10.1889
▁motive	-10.189
▁newspapers	-10.193
▁cloth	-10.1933
▁po	-10.1933
age	-10.1936
▁reign	-10.1936
▁wondering	-10.1955
▁crowded	-10.1961
▁deliver	-10.1969
▁resist	-10.1971
▁reckon	-10.1971
▁lift	-10.1974
▁agree	-10.1986
▁previous	-10.1995
▁final	-10.2
▁quarrel	-10.2019
▁poyser	-10.202
▁thompson	-10.202
▁bachelor	-10.202
▁audience	-10.202
▁thenardier	-10.202
▁jenny	-10.202
▁japanese	-10.202
▁fourteen	-10.202
▁departure	-10.202
▁judgment	-10.202
▁countries	-10.2021
▁anxiety	-10.2021
▁striking	-10.2022
▁mabel	-10.2024
▁empire	-10.2026
▁discussion	-10.2026
▁delightful	-10.203
▁knife	-10.2032
▁score	-10.204
▁arranged	-10.2062
▁changes	-10.2067
ine	-10.2071
▁needs	-10.2076
▁measures	-10.2077
▁delivered	-10.2079
▁pounds	-10.208
▁feared	-10.2089
▁kissed	-10.2099
▁fetch	-10.2108
▁infinite	-10.2114
▁lest	-10.2116
▁sport	-10.2117
▁concerned	-10.2125
▁monster	-10.2133
▁suspicion	-10.2135
▁region	-10.2136
owing	-10.2141
k	-10.2142
▁relation	-10.2145
▁beating	-10.2148
▁deeply	-10.215
▁leader	-10.2157
▁guns	-10.2184
▁shake	-10.219
▁burden	-10.2202
▁neat	-10.2217
ny	-10.2223
▁august	-10.2224
▁nail	-10.2229
▁delicate	-10.2243
▁spare	-10.2245
▁v	-10.2245
owed	-10.2245
▁assist	-10.226
▁hang	-10.226
▁movements	-10.2265
▁solid	-10.2266
▁plague	-10.227
▁porthos	-10.227
▁disappointment	-10.2271
▁hitherto	-10.2271
▁custom	-10.2273
▁extent	-10.2273
▁vivid	-10.2276
▁guilty	-10.228
▁recommend	-10.2282
▁slipp	-10.2292
▁disturbed	-10.2309
▁fold	-10.2327
▁deserted	-10.2339
ive	-10.2354
▁feast	-10.2358
▁attended	-10.2368
▁glanc	-10.2372
▁cup	-10.238
w	-10.239
▁giant	-10.2391
ts	-10.2393
▁capital	-10.2398
▁obtain	-10.242
▁organi	-10.2439
▁raise	-10.2452
▁waste	-10.2464
▁conceal	-10.2469
▁coward	-10.2477
▁triumph	-10.248
▁origin	-10.2486
ities	-10.2499
▁wake	-10.2501
▁faithful	-10.2509
de	-10.2513
▁peer	-10.2519
ated	-10.2521
f	-10.2522
▁print	-10.2523
▁richmond	-10.2526
▁confusion	-10.2526
▁midnight	-10.2526
▁genius	-10.2526
▁florina	-10.2527
▁sacred	-10.2527
▁singular	-10.2528
▁conviction	-10.2528
▁supreme	-10.2528
ar	-10.2528
▁satisfy	-10.2528
▁northern	-10.2529
▁stole	-10.2533
▁misery	-10.2533
▁preparation	-10.2538
▁erect	-10.2538
▁applied	-10.2541
▁assembl	-10.2541
▁remark	-10.2543
▁steadily	-10.2547
▁observe	-10.2561
▁bitterly	-10.2569
▁rays	-10.2607
▁defend	-10.2607
▁bones	-10.261
▁tear	-10.2615
▁aspect	-10.2621
▁bla	-10.2623
▁fence	-10.2625
▁pot	-10.2627
▁joe	-10.2629
ant	-10.264
▁wor	-10.2649
▁mo	-10.2654
▁article	-10.2655
▁attacked	-10.266
▁revolution	-10.2662
▁snake	-10.2664
▁silk	-10.2667
nce	-10.267
▁knee	-10.267
▁causes	-10.2673
▁ti	-10.2694
▁invite	-10.2699
▁relieve	-10.2699
▁exception	-10.2708
▁confess	-10.2719
tion	-10.2723
▁gleam	-10.2745
▁engineer	-10.2748
▁date	-10.276
▁earnest	-10.2761
▁intellectual	-10.2764
▁cheerful	-10.2766
▁poverty	-10.2789
▁platform	-10.2789
▁danglars	-10.2789
▁messenger	-10.2789
▁qualities	-10.2789
▁contempt	-10.2789
▁holland	-10.279
▁planchet	-10.279
▁trunk	-10.279
▁childhood	-10.279
▁examination	-10.279
▁confused	-10.2791
▁increasing	-10.2791
▁caroline	-10.2791
▁variety	-10.2792
▁friendship	-10.2796
▁committed	-10.2798
▁bushes	-10.28
▁exact	-10.2801
▁disappointed	-10.2803
▁smell	-10.2805
▁fever	-10.2806
▁steady	-10.2807
▁degrees	-10.2807
▁hesitated	-10.2814
▁introduced	-10.2814
▁earlie	-10.2818
▁statement	-10.282
▁limbs	-10.2821
▁joke	-10.2826
▁equality	-10.2829
▁powder	-10.2832
▁extended	-10.2834
▁jumped	-10.2836
▁loves	-10.284
▁objection	-10.2841
▁mink	-10.2847
▁hospital	-10.2848
▁today	-10.2849
▁divine	-10.2851
▁angel	-10.2853
▁stoop	-10.286
▁soil	-10.2863
▁views	-10.2863
▁prefer	-10.2876
▁embrace	-10.2877
▁incident	-10.2886
▁perceive	-10.2888
▁damp	-10.2891
▁plum	-10.2894
▁appears	-10.2915
▁conclusion	-10.2922
▁problem	-10.2922
▁candle	-10.2924
▁experiences	-10.2924
▁valuable	-10.2928
▁tribe	-10.2933
▁chest	-10.2948
▁straw	-10.2951
▁enable	-10.2952
▁fur	-10.2954
▁design	-10.2965
x	-10.2984
▁bull	-10.2996
▁descend	-10.3009
▁lo	-10.3024
▁grant	-10.303
▁fortunate	-10.304
▁centre	-10.3041
▁urge	-10.3042
▁loving	-10.3056
▁ages	-10.3057
▁gregg	-10.3059
▁fetnah	-10.3059
▁lukashka	-10.3059
▁numerous	-10.3059
▁local	-10.3061
▁housekeeper	-10.3061
▁surgeon	-10.3061
▁wendy	-10.3062
▁parish	-10.3062
▁hatred	-10.3062
▁accompany	-10.3067
▁anywhere	-10.307
▁niece	-10.3071
▁humanity	-10.3072
▁occasionally	-10.3074
▁fitted	-10.3075
▁vanished	-10.3078
▁horribl	-10.3084
▁trembled	-10.3084
▁connected	-10.309
▁union	-10.3095
▁burned	-10.31
▁mistaken	-10.3101
▁deny	-10.3104
▁hiding	-10.3109
▁boots	-10.311
▁soap	-10.3112
ery	-10.3114
▁francis	-10.3115
▁worry	-10.3127
▁noon	-10.3141
▁provision	-10.3147
ier	-10.3158
▁prim	-10.3163
▁praise	-10.3166
▁furnish	-10.3176
▁chase	-10.3185
▁bu	-10.3188
▁fatal	-10.3191
▁estate	-10.3203
like	-10.3218
▁page	-10.3219
▁vi	-10.3233
ville	-10.3234
▁amid	-10.3235
▁dressing	-10.3238
▁understanding	-10.3242
▁backward	-10.3252
▁correct	-10.3259
▁absorb	-10.3267
▁attract	-10.3269
▁shortly	-10.3272
▁loft	-10.3279
▁climb	-10.328
▁strain	-10.3281
▁madam	-10.3294
▁beast	-10.3294
▁drunk	-10.3329
▁creek	-10.3337
▁olenin	-10.3337
▁pencroft	-10.3337
▁yonder	-10.3337
▁university	-10.3338
▁beaver	-10.3338
▁leather	-10.3338
▁punishment	-10.3338
▁endeavour	-10.3339
▁habits	-10.3341
▁agony	-10.3341
▁stroke	-10.3342
▁gates	-10.3343
▁current	-10.3346
▁bush	-10.3346
me	-10.335
▁continually	-10.3351
▁muttered	-10.3351
▁lightly	-10.336
▁intelligent	-10.336
▁accord	-10.336
▁warning	-10.3363
▁fed	-10.3365
▁clasp	-10.3367
▁suspect	-10.3368
▁departed	-10.3369
▁rude	-10.3375
▁neglect	-10.3377
▁professional	-10.3384
▁grain	-10.3387
▁murmured	-10.3393
▁groups	-10.3397
▁contract	-10.3404
▁sharply	-10.3406
▁saddle	-10.3407
▁hopeless	-10.3409
▁dragg	-10.3412
▁pursu	-10.3415
▁warriors	-10.3417
▁brow	-10.3437
▁li	-10.3439
▁merit	-10.344
▁test	-10.3451
▁instinct	-10.3458
▁comment	-10.346
na	-10.3464
▁distinguish	-10.3473
▁freely	-10.3486
▁timber	-10.3486
▁sentence	-10.3487
▁squire	-10.3487
▁writer	-10.3488
▁impulse	-10.3489
▁learning	-10.349
▁medicine	-10.3492
▁counsel	-10.3497
▁rent	-10.3497
▁trap	-10.35
▁numbers	-10.3506
▁ex	-10.3525
▁pearl	-10.3526
▁pine	-10.3531
▁intentions	-10.3538
ade	-10.355
▁sunk	-10.3553
▁constitution	-10.3561
▁murmur	-10.3565
▁vessels	-10.357
▁crack	-10.3571
▁seeming	-10.3576
▁roc	-10.3593
▁spoil	-10.3596
ement	-10.3604
▁whil	-10.3619
▁quarles	-10.3623
▁saturday	-10.3623
▁slender	-10.3623
▁violence	-10.3623
▁railroad	-10.3623
▁indignation	-10.3623
▁canadian	-10.3623
▁utmost	-10.3623
▁herbert	-10.3624
▁cropper	-10.3624
▁conway	-10.3625
▁prudence	-10.3626
▁assure	-10.3627
▁enjoyment	-10.3627
▁telegraph	-10.3627
▁pony	-10.3628
▁joyce	-10.3629
▁difficulties	-10.3629
▁shadows	-10.3631
sei	-10.3635
▁precisely	-10.3636
▁ro	-10.3636
▁perpetual	-10.3637
▁rollin	-10.3639
▁aloud	-10.3645
distinguished	-10.3646
▁flushed	-10.3654
▁restored	-10.3654
▁purposes	-10.3664
▁obeyed	-10.3668
▁project	-10.3676
▁climbed	-10.3682
▁sex	-10.3683
▁happens	-10.3684
▁bark	-10.3685
▁gravely	-10.3696
▁stroll	-10.3703
▁tracks	-10.3704
▁remove	-10.3704
▁permit	-10.3712
▁gods	-10.3717
▁locked	-10.373
▁cent	-10.3745
▁pearls	-10.3749
▁commanded	-10.3749
▁jack	-10.3757
▁labour	-10.3764
▁tribes	-10.3768
▁belle	-10.3776
▁handkerchief	-10.3778
▁circumstance	-10.3781
▁pirate	-10.3785
ere	-10.3801
▁image	-10.3807
▁flag	-10.3808
▁treasure	-10.3811
▁brook	-10.3817
▁base	-10.3826
▁peasants	-10.3827
▁torn	-10.3829
▁continu	-10.383
▁du	-10.383
▁protect	-10.3834
▁mag	-10.3844
▁commons	-10.3844
▁mist	-10.3845
▁troubled	-10.385
▁handle	-10.3851
▁magic	-10.3866
▁van	-10.3869
▁extend	-10.3884
▁balance	-10.3891
▁intense	-10.3892
ia	-10.3905
▁meat	-10.3914
withstand	-10.3914
▁coffee	-10.3917
▁ronicky	-10.3917
▁ignorant	-10.3917
▁boston	-10.3917
▁opposition	-10.3917
▁external	-10.3918
▁morland	-10.3918
▁oliver	-10.3919
▁comprehend	-10.3919
evir	-10.392
▁leif	-10.392
▁darling	-10.392
▁paul	-10.3921
▁motionless	-10.3922
▁declare	-10.3922
▁disposition	-10.3924
▁dusk	-10.3931
▁inhabitants	-10.3932
▁published	-10.3936
▁capacity	-10.3938
▁anyhow	-10.3941
▁hero	-10.3942
▁travell	-10.3946
▁wheat	-10.395
▁burning	-10.395
▁losing	-10.3958
▁reflected	-10.3962
▁developed	-10.3968
▁instructions	-10.3969
▁seas	-10.3975
▁sovereign	-10.3975
▁stamp	-10.4006
▁shift	-10.4008
▁quarters	-10.4019
u	-10.4031
▁rescue	-10.4044
▁conducted	-10.4045
▁gloom	-10.4048
▁badly	-10.4049
▁swing	-10.405
▁tis	-10.405
▁dismiss	-10.4062
▁fac	-10.4063
▁trace	-10.4064
▁preserv	-10.4077
▁collection	-10.408
▁plate	-10.4083
▁diamond	-10.4084
▁summit	-10.4084
▁reflection	-10.4086
▁breathing	-10.4087
▁kinds	-10.409
▁maiden	-10.41
▁driver	-10.4107
▁net	-10.4108
▁settle	-10.411
▁advanc	-10.411
▁attempted	-10.4126
▁lane	-10.4127
▁sing	-10.4137
▁metal	-10.4139
ning	-10.4139
▁hid	-10.414
▁ar	-10.4141
▁visited	-10.4144
▁occasions	-10.4159
ey	-10.4162
▁succeed	-10.4164
▁teach	-10.417
▁sensation	-10.4177
▁andrea	-10.4181
▁andrew	-10.4183
et	-10.419
▁grateful	-10.4193
▁positive	-10.4196
▁suppress	-10.4198
▁acknowledge	-10.4208
▁load	-10.421
▁ne	-10.4213
▁cur	-10.4214
ide	-10.4214
▁impress	-10.4215
▁contact	-10.422
▁leisure	-10.422
▁bernard	-10.422
▁isabella	-10.4221
▁julia	-10.4223
▁meantime	-10.4223
▁abruptly	-10.4226
▁peril	-10.4227
her	-10.4227
▁throng	-10.4228
▁establishment	-10.4231
▁carling	-10.4232
▁market	-10.4233
▁thumb	-10.4237
▁wrapped	-10.4238
▁theatre	-10.4242
▁acquired	-10.4242
▁wept	-10.4245
▁divided	-10.4247
▁hi	-10.4257
▁barrel	-10.426
▁prospect	-10.4267
▁fears	-10.4271
▁perish	-10.428
▁counter	-10.4289
▁disguise	-10.4311
▁career	-10.4319
▁arrive	-10.4321
▁details	-10.4321
▁roads	-10.4322
▁china	-10.4326
▁inter	-10.4337
▁intimate	-10.4359
▁supported	-10.4363
▁ven	-10.4377
▁regiment	-10.4378
▁perform	-10.4385
▁victim	-10.4396
▁plant	-10.4396
▁neighbour	-10.44
▁emotion	-10.4401
▁domestic	-10.4404
▁bree	-10.4415
▁neighbor	-10.4422
▁fo	-10.4439
▁hit	-10.4447
▁pursue	-10.4448
▁hail	-10.4452
▁romans	-10.4456
▁humour	-10.4461
▁sam	-10.4462
▁reader	-10.4464
▁mood	-10.4472
▁represent	-10.4475
▁winds	-10.4477
▁jump	-10.4479
▁profession	-10.4481
▁shelter	-10.4482
▁shriek	-10.4483
▁ours	-10.4487
▁wren	-10.4492
▁crep	-10.4493
▁swords	-10.4496
cal	-10.45
▁drift	-10.4505
▁endure	-10.4509
▁su	-10.4516
▁practical	-10.4517
▁process	-10.4521
▁absurd	-10.453
▁ralph	-10.4532
▁thomas	-10.4532
▁genuine	-10.4532
▁beryl	-10.4532
▁bingley	-10.4532
▁merrick	-10.4532
▁justinian	-10.4532
▁uniform	-10.4532
▁christmas	-10.4532
▁duties	-10.4533
▁spectacle	-10.4533
▁kara	-10.4533
▁barrier	-10.4534
▁student	-10.4538
▁readily	-10.4538
▁vigorous	-10.4539
▁respectable	-10.4541
▁convey	-10.4541
▁check	-10.4549
▁longing	-10.4554
▁humble	-10.456
▁reporter	-10.4564
▁cries	-10.4564
▁activity	-10.4565
▁fisher	-10.4566
▁gown	-10.4567
▁endless	-10.4582
▁garments	-10.4583
▁assumed	-10.4586
▁represented	-10.4596
▁concealed	-10.4602
▁acted	-10.4603
▁wing	-10.4604
▁ned	-10.4607
▁rais	-10.4611
der	-10.4614
▁mode	-10.4614
▁purchase	-10.4621
▁sheet	-10.4626
▁shaw	-10.464
ur	-10.4655
▁hop	-10.4658
▁dine	-10.4661
▁kings	-10.4665
▁seeking	-10.4667
▁contented	-10.4685
▁experienced	-10.4702
▁fore	-10.4707
▁articles	-10.471
▁discourse	-10.471
▁sin	-10.4717
▁engagement	-10.4718
▁benefit	-10.4718
▁center	-10.4723
▁cents	-10.4724
▁disease	-10.4726
▁rue	-10.4734
▁issue	-10.4744
shone	-10.4762
▁worship	-10.4764
▁manifest	-10.4776
▁encourage	-10.478
▁collect	-10.4788
▁lesson	-10.4788
▁na	-10.4796
▁groan	-10.4813
▁log	-10.4813
▁reproach	-10.4829
▁sigh	-10.4833
▁chose	-10.4838
▁services	-10.4838
▁glorious	-10.4843
▁permitt	-10.4851
▁unpleasant	-10.4851
▁buffalo	-10.4855
▁troutina	-10.4855
▁impatience	-10.4855
▁frederick	-10.4855
▁vengeance	-10.4855
▁barbara	-10.4856
▁thither	-10.4857
▁improvement	-10.4857
▁lynde	-10.4857
▁industry	-10.4858
▁moonlight	-10.4858
▁curate	-10.4858
▁fiddler	-10.4859
▁creation	-10.4859
▁succession	-10.486
▁indifference	-10.4862
▁belief	-10.4862
▁withdrew	-10.4863
▁orange	-10.4864
▁keeps	-10.4871
▁growth	-10.4872
▁accused	-10.4877
▁jenks	-10.4877
▁practically	-10.4881
▁fastened	-10.4883
▁congress	-10.4887
▁doubtful	-10.4888
▁ali	-10.4891
▁fix	-10.4894
▁eighth	-10.4895
▁eternal	-10.4896
▁dwelling	-10.4903
▁related	-10.4904
▁tight	-10.4908
▁dirt	-10.4909
▁groom	-10.4916
▁oars	-10.4916
▁barn	-10.4921
▁propose	-10.4933
▁smart	-10.4938
▁closer	-10.4941
▁sledge	-10.4944
▁senses	-10.4951
▁definite	-10.4951
▁inform	-10.4953
▁considering	-10.4968
▁sons	-10.4968
▁using	-10.497
▁strangers	-10.497
▁signor	-10.4971
▁guests	-10.4971
▁com	-10.4974
▁lap	-10.4979
▁mayor	-10.4995
▁rolling	-10.4998
▁aroused	-10.5002
▁purse	-10.5012
▁shells	-10.5013
▁govern	-10.5014
▁oil	-10.502
▁troop	-10.5021
more	-10.5021
▁calls	-10.5038
▁notes	-10.5045
▁conception	-10.5051
▁misfortune	-10.5052
▁volume	-10.5054
▁expectation	-10.5056
▁dreaming	-10.5061
▁thor	-10.5067
▁hence	-10.507
▁encounter	-10.5079
ipped	-10.5081
▁bab	-10.5087
▁ridge	-10.5087
▁mild	-10.5091
▁trick	-10.5101
ring	-10.5107
▁wit	-10.5114
▁dart	-10.5123
▁develop	-10.5128
▁putt	-10.5138
▁supply	-10.5146
▁arrest	-10.5148
▁caus	-10.515
▁arrange	-10.516
▁jealous	-10.5161
▁cape	-10.5162
▁hay	-10.5162
▁cart	-10.5166
ung	-10.5167
▁fog	-10.5169
▁april	-10.5187
▁bosom	-10.5187
▁abraham	-10.5188
▁leopold	-10.5188
▁campaign	-10.5188
▁grammont	-10.5188
▁substance	-10.5188
▁barbicane	-10.5188
▁refuge	-10.5188
▁gwynplaine	-10.5188
▁hoopdriver	-10.5188
▁montgomery	-10.5188
▁senator	-10.5188
▁mischief	-10.5188
▁neighborhood	-10.5188
▁greggory	-10.5189
▁naked	-10.5189
▁iceland	-10.519
▁necessarily	-10.519
▁fanny	-10.519
▁lightn	-10.519
▁independence	-10.5191
▁carpet	-10.5191
▁consequently	-10.5192
▁cabinet	-10.5192
▁secretary	-10.5194
▁tiger	-10.5194
▁quality	-10.5196
▁prepare	-10.52
▁happily	-10.5206
ate	-10.5207
▁repeat	-10.5207
▁silly	-10.5212
▁electric	-10.5212
▁crawl	-10.5218
▁ninet	-10.5222
▁waved	-10.5226
▁persuaded	-10.5231
▁scared	-10.5247
▁mid	-10.5255
▁steal	-10.5262
▁culture	-10.5282
ial	-10.5286
▁covering	-10.5297
▁border	-10.5297
▁tops	-10.53
▁accompanie	-10.5302
▁sincere	-10.5309
▁results	-10.5325
▁hearted	-10.5334
▁beasts	-10.534
▁beach	-10.5343
▁seats	-10.5345
▁list	-10.5349
▁receiv	-10.5354
▁pile	-10.5368
▁lawn	-10.5376
▁scent	-10.5386
▁inner	-10.5391
▁steam	-10.5393
▁lock	-10.5395
▁criminal	-10.5396
ked	-10.5403
▁guessed	-10.5404
▁whisper	-10.542
▁slip	-10.542
▁partial	-10.5423
▁creep	-10.543
▁remaining	-10.5432
▁fishe	-10.5436
▁pronounce	-10.5445
▁idle	-10.5448
▁ability	-10.545
▁solitar	-10.5454
▁staff	-10.546
▁complain	-10.5462
▁outline	-10.5467
▁observ	-10.5474
ened	-10.5484
▁separate	-10.5488
▁reflect	-10.5496
▁finish	-10.5501
▁polite	-10.5507
▁independent	-10.5508
▁apparent	-10.5508
▁cunning	-10.551
▁graceful	-10.5511
▁autumn	-10.5531
▁stuck	-10.5532
▁coarse	-10.5532
▁joseph	-10.5533
▁furniture	-10.5533
▁solitude	-10.5533
▁farewell	-10.5533
▁authorities	-10.5533
▁favorite	-10.5534
▁possibility	-10.5535
▁juliet	-10.5535
▁falk	-10.5535
▁damon	-10.5537
▁mankind	-10.5537
▁bible	-10.5538
▁responded	-10.5539
▁recollection	-10.554
▁confession	-10.554
▁agitation	-10.554
▁overhead	-10.5542
▁lark	-10.5542
▁forests	-10.5545
▁renewed	-10.5547
▁polly	-10.5548
▁keen	-10.555
▁walke	-10.555
▁commission	-10.5551
▁carol	-10.5553
▁warn	-10.5554
▁motor	-10.5557
▁captured	-10.5565
▁harsh	-10.5567
▁previously	-10.5569
▁parties	-10.5573
▁reasonable	-10.5576
▁bears	-10.5577
▁upward	-10.559
▁loudly	-10.5592
▁nuts	-10.5593
▁robe	-10.5594
▁stronger	-10.5597
▁calmly	-10.5602
▁historians	-10.5603
▁grove	-10.5605
▁fran	-10.561
id	-10.5612
hori	-10.5612
▁feed	-10.5613
▁flowing	-10.5619
▁agents	-10.5627
▁hare	-10.563
▁steel	-10.5638
▁sorr	-10.564
▁cakes	-10.5645
▁souls	-10.5647
▁alarmed	-10.565
el	-10.5661
▁stable	-10.5662
▁landing	-10.5674
▁misfortunes	-10.5676
▁adapt	-10.5677
▁hunter	-10.5678
▁heels	-10.569
▁blush	-10.5694
▁anti	-10.5703
▁resembl	-10.5721
▁guide	-10.5725
▁rabbit	-10.5738
▁holes	-10.5738
▁park	-10.5742
▁collar	-10.5743
▁steppe	-10.5744
▁prairie	-10.5745
▁interview	-10.5745
▁bullet	-10.5751
▁enterprise	-10.5756
▁decision	-10.5756
▁wagon	-10.5756
aving	-10.5758
▁fi	-10.5762
▁pursuit	-10.5762
eaten	-10.5764
▁rival	-10.5765
▁apple	-10.5767
▁invit	-10.5775
▁mate	-10.5779
▁compare	-10.5782
▁principles	-10.58
▁prophet	-10.5801
▁shy	-10.5802
▁swim	-10.5806
▁lip	-10.5806
▁virtues	-10.5807
▁humor	-10.5824
▁obey	-10.5835
▁sneer	-10.5835
▁scream	-10.5843
▁ra	-10.5844
▁lion	-10.5851
day	-10.5853
▁missed	-10.5855
▁decide	-10.5863
▁tremendous	-10.5863
▁obvious	-10.5863
▁execution	-10.587
▁pant	-10.5879
▁beings	-10.5883
carlet	-10.5884
▁bid	-10.5886
aburo	-10.5889
▁january	-10.5889
▁lecoq	-10.5889
▁memories	-10.5889
▁lantern	-10.5889
▁carlini	-10.5889
▁gnome	-10.5889
▁british	-10.5889
▁michel	-10.5889
▁ireland	-10.5889
▁julius	-10.5889
▁total	-10.5889
▁cloak	-10.589
▁napoleon	-10.589
▁margaret	-10.589
▁chauvelin	-10.589
▁whirlwind	-10.589
▁california	-10.589
▁wilmington	-10.589
▁ignorance	-10.589
▁esther	-10.589
▁favourite	-10.5891
▁comparative	-10.5891
▁globe	-10.5891
▁esteem	-10.5892
▁awoke	-10.5893
▁pin	-10.5893
▁irish	-10.5896
▁frightful	-10.5896
▁distinction	-10.5897
▁bless	-10.5897
▁recollect	-10.5898
▁survey	-10.5899
▁stopping	-10.5901
▁occupy	-10.5901
▁horn	-10.5902
▁timid	-10.5904
▁dining	-10.5916
▁glasses	-10.592
▁coloured	-10.592
▁rubbed	-10.5923
▁admired	-10.5925
▁offering	-10.5929
▁sixth	-10.5931
▁boast	-10.594
▁gathering	-10.5945
▁islands	-10.5948
▁flame	-10.5949
▁clothing	-10.5949
▁loaded	-10.5964
▁team	-10.5969
▁jar	-10.5978
▁kick	-10.5987
▁san	-10.5998
▁prayers	-10.6016
▁lucky	-10.6018
▁exists	-10.602
▁plains	-10.6027
▁glow	-10.6034
▁quit	-10.6043
▁tradition	-10.6044
▁clerk	-10.6048
▁ver	-10.6052
all	-10.6054
▁occur	-10.6061
was	-10.6062
worn	-10.6067
▁pit	-10.6071
▁sparkl	-10.6073
ssed	-10.6076
▁damage	-10.6082
▁dash	-10.6083
▁peak	-10.609
▁mars	-10.6094
ian	-10.6104
▁procure	-10.611
▁follows	-10.6112
▁circular	-10.6112
▁dollar	-10.6124
▁operation	-10.6127
▁fleece	-10.613
▁steamer	-10.6132
▁shirt	-10.6132
▁guest	-10.6134
▁doorway	-10.6139
▁breathe	-10.614
▁owe	-10.6151
▁whip	-10.6173
▁shell	-10.6192
▁disturb	-10.62
▁weigh	-10.6202
▁bennet	-10.621
▁communicate	-10.622
ure	-10.6223
▁fatigue	-10.6228
▁hideous	-10.6232
▁sufferings	-10.6244
▁flour	-10.6251
▁graduate	-10.6252
▁caterpillar	-10.6259
▁launcelot	-10.6259
▁mariposa	-10.6259
▁taylor	-10.6259
▁orphan	-10.6259
▁uneasy	-10.626
▁wilson	-10.626
▁population	-10.626
▁coroner	-10.6261
▁sunlight	-10.6261
▁blew	-10.6261
▁smok	-10.6261
▁contrast	-10.6262
▁reference	-10.6263
▁greek	-10.6264
▁characters	-10.6264
▁muscle	-10.6265
▁tie	-10.6268
▁exceedingly	-10.6268
▁feeble	-10.6268
▁security	-10.627
▁rejoined	-10.6275
▁liver	-10.6275
▁dried	-10.6277
▁louder	-10.6281
▁folly	-10.6282
▁duck	-10.6287
▁guards	-10.6289
▁adopted	-10.6292
▁thorpe	-10.6292
▁fl	-10.6297
▁deceived	-10.6299
▁jimmy	-10.6299
▁swell	-10.6302
▁boxes	-10.6303
▁relate	-10.631
work	-10.6316
▁advantages	-10.6319
▁properly	-10.6328
▁presents	-10.634
▁youngest	-10.6343
▁moan	-10.6344
▁brand	-10.6348
▁scenes	-10.6349
▁jewels	-10.6353
▁cake	-10.6359
▁natured	-10.6359
▁associate	-10.6365
▁careless	-10.6366
▁prime	-10.6372
▁echo	-10.6372
▁reported	-10.6374
▁plants	-10.6374
lung	-10.6396
les	-10.6398
▁herod	-10.6407
▁pro	-10.6409
▁ja	-10.641
▁weeping	-10.641
▁speedi	-10.6415
of	-10.6416
▁catching	-10.6424
▁melt	-10.6425
▁searching	-10.6426
▁emotions	-10.6429
▁accent	-10.6438
▁wave	-10.6439
▁strongly	-10.6457
▁dan	-10.6464
▁sta	-10.6466
▁plunge	-10.6471
▁lively	-10.648
▁repose	-10.6491
▁italian	-10.6501
▁chairs	-10.6503
▁expense	-10.6508
▁gesture	-10.6508
▁source	-10.651
▁column	-10.651
presented	-10.6517
▁debt	-10.6517
▁error	-10.6528
▁intend	-10.653
ions	-10.655
nt	-10.6553
▁exist	-10.6557
▁meadows	-10.6567
▁williams	-10.6598
▁impatient	-10.6618
▁inquire	-10.6621
▁hind	-10.6629
▁beth	-10.6633
▁slaves	-10.6637
▁instances	-10.6639
▁martin	-10.6642
▁intellect	-10.6642
▁exquisite	-10.6644
▁obstacle	-10.6644
▁vehicle	-10.6644
▁interior	-10.6644
▁wisdom	-10.6644
▁nonsense	-10.6644
▁centuries	-10.6644
▁remedy	-10.6644
▁cristel	-10.6644
▁neighbourhood	-10.6644
▁monica	-10.6644
▁junior	-10.6644
▁turkey	-10.6644
▁amusement	-10.6645
▁declaration	-10.6645
▁sunset	-10.6645
▁charity	-10.6645
▁protection	-10.6646
▁entertainment	-10.6646
▁remote	-10.6646
▁drank	-10.6647
▁emily	-10.6648
▁bargain	-10.6649
▁probable	-10.665
▁caution	-10.665
▁valet	-10.6651
▁uncomfortable	-10.6651
▁harmony	-10.6652
▁robber	-10.6653
▁venus	-10.6655
▁weakness	-10.6655
▁decay	-10.6656
▁thirst	-10.6659
▁individuals	-10.6659
▁heartily	-10.6662
▁sofa	-10.6666
▁european	-10.6668
▁persuade	-10.6669
▁recognise	-10.6669
▁clay	-10.6669
▁carelessly	-10.667
▁closing	-10.667
▁fountain	-10.6673
▁masses	-10.6673
▁positively	-10.6675
▁chin	-10.6678
roused	-10.6694
▁existed	-10.6704
▁issued	-10.6707
▁indicated	-10.6709
▁pushing	-10.671
▁curiously	-10.6711
▁performed	-10.6719
▁formerly	-10.672
▁granted	-10.672
▁prompt	-10.672
▁veins	-10.6725
▁crane	-10.6725
▁pupils	-10.6728
▁snap	-10.6729
▁joll	-10.6732
▁fort	-10.6736
▁frogs	-10.674
▁behave	-10.6743
▁complex	-10.6748
▁greet	-10.6752
▁tip	-10.6752
▁gardens	-10.6757
▁absent	-10.6786
▁directions	-10.6805
▁shores	-10.6808
▁coal	-10.6812
▁harding	-10.6822
▁protest	-10.6822
▁plung	-10.6836
▁canvas	-10.6851
iled	-10.687
▁cling	-10.6881
▁grin	-10.6885
▁instruments	-10.6889
▁alike	-10.6892
▁toil	-10.6896
▁bud	-10.6899
▁pillow	-10.6904
▁heavens	-10.6916
▁borne	-10.6917
▁detail	-10.6918
▁hale	-10.6923
▁oath	-10.6933
▁prayer	-10.6934
▁lit	-10.6937
▁revenge	-10.6939
▁staying	-10.6942
▁dreamed	-10.6944
▁cha	-10.6945
▁mask	-10.6948
▁riches	-10.6951
▁bench	-10.6953
▁overwhelm	-10.6964
ded	-10.6969
▁root	-10.6974
▁arch	-10.6978
▁gossip	-10.6993
▁display	-10.6994
▁infant	-10.6998
nd	-10.6998
▁russia	-10.7002
▁tumult	-10.7012
▁pod	-10.702
▁mu	-10.7029
▁troubles	-10.7031
▁bewilder	-10.7043
▁chokichi	-10.7044
▁conflict	-10.7044
▁chicago	-10.7044
▁november	-10.7044
▁biscuit	-10.7044
▁jasper	-10.7044
▁rynch	-10.7044
▁executive	-10.7044
▁sugar	-10.7044
▁headquarters	-10.7044
▁lunch	-10.7044
▁grandmother	-10.7044
▁pilot	-10.7044
▁proposition	-10.7046
▁bedroom	-10.7046
▁permanent	-10.7046
▁studied	-10.7046
▁normal	-10.7048
▁calf	-10.7048
▁aren	-10.705
▁cherish	-10.705
▁background	-10.705
▁pink	-10.705
▁englishman	-10.7052
▁parker	-10.7053
▁sadness	-10.7055
▁mutual	-10.7058
▁unwilling	-10.706
▁temporary	-10.706
▁invisible	-10.7061
▁italy	-10.7061
▁function	-10.7064
▁drowned	-10.7071
▁exposed	-10.7072
▁awakened	-10.7073
▁owned	-10.7074
▁thread	-10.7077
▁swear	-10.7079
▁burn	-10.708
▁faster	-10.7083
▁fury	-10.7083
▁glowing	-10.7096
▁buildings	-10.7099
▁scale	-10.7106
▁passionate	-10.7109
▁sink	-10.711
▁sadly	-10.7118
▁streams	-10.7128
ice	-10.7133
▁sees	-10.714
series	-10.7144
▁submit	-10.7145
▁moss	-10.7162
▁preced	-10.7163
▁mi	-10.7176
▁cell	-10.7179
▁bills	-10.7184
▁desires	-10.7185
▁shouldn	-10.7188
▁perch	-10.7189
▁stagger	-10.7193
▁bigge	-10.7194
▁lessons	-10.7222
▁pye	-10.7225
▁brings	-10.724
▁section	-10.7253
▁stir	-10.7257
▁flood	-10.7265
▁reserve	-10.7268
▁pockets	-10.7279
▁foundation	-10.7295
▁strangely	-10.7297
▁centr	-10.7303
▁impressions	-10.7311
ward	-10.7315
signed	-10.7316
▁extra	-10.7317
▁robin	-10.7322
▁channel	-10.7323
▁slope	-10.7323
▁martian	-10.7325
▁association	-10.7327
▁depth	-10.7329
▁cure	-10.7331
▁banker	-10.7332
▁demands	-10.7336
our	-10.7336
▁sauce	-10.7339
▁stray	-10.7344
▁israel	-10.7344
▁batter	-10.7344
▁ascend	-10.735
▁paus	-10.7351
▁scrap	-10.7353
▁consist	-10.7354
▁apply	-10.7362
▁avail	-10.7367
▁psychic	-10.7383
▁lone	-10.7385
▁monte	-10.74
▁poison	-10.7405
▁bohemia	-10.7416
▁capture	-10.7423
▁hesitate	-10.7424
▁interfere	-10.7425
▁rifle	-10.7425
▁map	-10.743
▁boats	-10.743
▁belonging	-10.7434
▁boil	-10.7443
ter	-10.7443
▁flu	-10.7452
▁roses	-10.7453
▁syndic	-10.7459
▁phrase	-10.746
▁cetera	-10.746
▁corridor	-10.746
▁jerusalem	-10.746
▁scientific	-10.746
▁brenda	-10.746
▁avenue	-10.746
▁chinese	-10.746
▁residence	-10.7461
▁monstrous	-10.7461
▁cattle	-10.7461
▁elegant	-10.7462
▁milton	-10.7462
▁elsewhere	-10.7463
▁stephen	-10.7463
▁abundance	-10.7463
▁convenient	-10.7464
▁gracious	-10.7464
▁stump	-10.7465
▁exertion	-10.7465
▁universe	-10.7467
▁disorder	-10.7468
▁raven	-10.7468
▁eagerness	-10.7469
▁majority	-10.7469
▁oppress	-10.747
▁bars	-10.7472
▁stirred	-10.7472
▁courteous	-10.7473
▁retorted	-10.7474
▁apprehension	-10.7475
▁daylight	-10.7475
▁keeper	-10.748
▁min	-10.7481
▁comrade	-10.7482
▁revolt	-10.7482
▁exhibited	-10.7482
▁warmth	-10.7484
▁obedience	-10.7485
▁offence	-10.7486
▁halted	-10.7491
▁simon	-10.7492
▁granit	-10.7494
▁shield	-10.7494
▁opposed	-10.7496
▁involved	-10.7497
▁earnestly	-10.7501
▁crushed	-10.7501
▁seventh	-10.751
▁cupid	-10.7517
▁displayed	-10.7517
▁heroic	-10.7523
▁bron	-10.7525
▁acknowledged	-10.7527
▁serene	-10.7528
▁altered	-10.7529
▁dwell	-10.7529
▁et	-10.7531
▁shaken	-10.7532
▁teaching	-10.7536
▁weep	-10.7541
▁flutter	-10.7548
▁seriously	-10.7554
▁differ	-10.7554
▁exile	-10.7564
▁chances	-10.7565
▁decidedly	-10.7572
▁foul	-10.7576
▁restore	-10.7577
▁willingly	-10.758
▁weapons	-10.7581
▁deeds	-10.7597
▁tide	-10.7603
▁reject	-10.7605
il	-10.7609
▁gas	-10.7616
▁doone	-10.7634
▁diamonds	-10.7651
▁lace	-10.7654
▁pirates	-10.7656
▁estates	-10.7668
▁tremble	-10.7676
▁rail	-10.7679
▁damn	-10.7683
▁defeat	-10.7688
king	-10.7688
▁motives	-10.7696
▁contest	-10.7703
▁grounds	-10.7704
▁author	-10.7719
▁cliffs	-10.772
▁appropriate	-10.7722
▁hasten	-10.7728
▁awe	-10.7729
▁methods	-10.7735
▁stomach	-10.7752
▁composition	-10.7754
▁adams	-10.7757
▁signal	-10.7764
▁trifle	-10.7765
▁application	-10.7768
▁apt	-10.7777
▁offices	-10.7779
▁prepar	-10.7779
▁corpse	-10.778
▁blot	-10.778
▁beam	-10.7782
▁retain	-10.7788
▁mission	-10.779
▁plann	-10.7791
tted	-10.7812
▁allen	-10.7813
▁crook	-10.7833
▁abandon	-10.7837
▁disappear	-10.7837
▁scorn	-10.7837
▁tables	-10.7841
eal	-10.7844
iness	-10.7845
▁rules	-10.7848
▁restless	-10.7849
▁skins	-10.785
▁partner	-10.7854
ir	-10.7857
▁dislike	-10.7857
▁conceive	-10.7861
▁aim	-10.7865
▁whirl	-10.7867
▁insult	-10.7868
▁assert	-10.7868
▁jest	-10.787
▁comrades	-10.7873
▁propos	-10.7874
▁smiles	-10.7875
▁chap	-10.788
▁chill	-10.7892
▁cigar	-10.7893
▁muskrat	-10.7895
▁josiana	-10.7895
▁angrily	-10.7895
▁robarts	-10.7895
▁hopkins	-10.7895
▁yourselves	-10.7895
▁rawdon	-10.7895
▁redcoat	-10.7895
▁harvest	-10.7895
▁cigarette	-10.7895
▁parcel	-10.7895
▁crystal	-10.7895
▁funeral	-10.7895
▁romantic	-10.7895
▁subsequent	-10.7896
▁porch	-10.7896
▁panic	-10.7896
▁feverish	-10.7897
▁indifferent	-10.7897
▁disturbance	-10.7898
▁dismay	-10.79
▁machinery	-10.79
▁heir	-10.79
▁inquiry	-10.7901
▁interruption	-10.7904
▁chicken	-10.7904
▁triumphant	-10.7904
▁patch	-10.7905
▁airship	-10.7909
ns	-10.7909
▁winding	-10.7913
▁obscure	-10.7914
▁cutting	-10.7919
▁promptly	-10.7919
▁frost	-10.7921
▁commenced	-10.7927
▁beaten	-10.7928
▁quest	-10.793
▁pinch	-10.7933
▁reasoning	-10.7934
▁boughs	-10.7934
▁acts	-10.7935
▁par	-10.7939
▁lords	-10.794
▁cra	-10.7943
▁satisfactory	-10.7945
▁invent	-10.7946
▁thee	-10.7953
▁jaws	-10.7954
▁tune	-10.7955
▁pound	-10.7955
▁patiently	-10.7959
▁advised	-10.7967
▁daring	-10.7967
▁faintly	-10.7968
▁amused	-10.797
▁seconds	-10.797
▁yell	-10.7976
ious	-10.7976
▁sublime	-10.798
▁sobb	-10.7982
▁spell	-10.7993
▁healthy	-10.7995
▁swu	-10.8002
▁turns	-10.8007
opped	-10.801
▁anxiously	-10.8013
▁inch	-10.8019
▁fancies	-10.8037
▁witnessed	-10.8042
▁hook	-10.8045
▁limited	-10.8047
▁stated	-10.8048
▁shaped	-10.8049
▁dew	-10.8052
▁county	-10.8055
▁profit	-10.806
▁legal	-10.808
▁training	-10.8089
▁term	-10.809
▁speaker	-10.8094
▁sensations	-10.8095
▁exclusion	-10.8099
▁deer	-10.812
▁thine	-10.8125
▁sighted	-10.814
▁sho	-10.8151
▁alter	-10.816
▁actions	-10.8183
▁embarrassment	-10.8192
▁balloon	-10.8193
ch	-10.8209
▁torrent	-10.821
▁assistant	-10.8211
▁holiday	-10.8212
rus	-10.8212
▁inclination	-10.8224
▁belt	-10.8227
▁hint	-10.8228
▁pig	-10.8228
▁jacket	-10.8245
▁track	-10.8249
▁card	-10.8253
▁ray	-10.8254
▁lots	-10.8259
▁fame	-10.8267
▁scheme	-10.8273
▁manag	-10.8278
ched	-10.8285
▁blank	-10.8287
▁punish	-10.8289
▁curl	-10.8301
▁sorts	-10.8303
▁cease	-10.8304
▁spectators	-10.8312
▁cave	-10.8316
▁organ	-10.8322
▁hoarse	-10.8323
▁furious	-10.8325
▁allies	-10.8327
▁provide	-10.8341
▁deposit	-10.8348
▁cotton	-10.8348
▁charlotte	-10.835
▁conniston	-10.835
▁gwendolen	-10.835
▁photograph	-10.835
▁surrender	-10.835
▁sergeant	-10.835
▁artificial	-10.835
▁sinister	-10.835
▁durham	-10.835
▁florence	-10.835
▁hesitation	-10.835
▁escort	-10.835
▁wolf	-10.835
▁pavement	-10.835
▁sheriff	-10.835
lain	-10.835
▁resistance	-10.8351
▁quixote	-10.8351
▁bibbs	-10.8353
▁combination	-10.8353
▁anguish	-10.8353
▁response	-10.8353
▁combat	-10.8354
▁swore	-10.8355
▁preferred	-10.8356
▁villain	-10.8356
▁illusion	-10.8357
▁rigid	-10.836
▁philosophy	-10.8362
▁johnny	-10.8365
▁mournful	-10.8366
▁symptoms	-10.8366
▁romance	-10.8368
▁circus	-10.8371
▁desirable	-10.8373
▁device	-10.8373
▁pleasing	-10.8374
▁illness	-10.8375
▁lowest	-10.8375
▁structure	-10.8378
▁abuse	-10.8378
▁confined	-10.8378
▁lungs	-10.8385
▁bone	-10.8387
ability	-10.8388
▁spur	-10.839
▁unconsciously	-10.8398
ad	-10.8401
▁consisted	-10.8406
▁harness	-10.841
▁ox	-10.8414
▁violently	-10.8414
attached	-10.8415
▁clad	-10.8415
▁blessing	-10.8417
▁tumble	-10.8422
▁suffrage	-10.8422
▁germany	-10.8429
▁guided	-10.8432
▁risen	-10.8438
▁printed	-10.8438
▁princes	-10.8439
▁raft	-10.8442
well	-10.8445
▁indicate	-10.845
▁fortunately	-10.8452
ixture	-10.8452
▁games	-10.8452
▁accompani	-10.8453
▁danced	-10.8454
▁fascinat	-10.8454
▁struggled	-10.8462
▁passes	-10.8473
▁threatening	-10.8473
▁reserved	-10.8475
ig	-10.8478
water	-10.848
▁organs	-10.8493
▁cy	-10.8493
▁u	-10.8506
▁subtle	-10.8509
▁monarch	-10.8514
▁flames	-10.8523
▁jerk	-10.8526
▁shine	-10.8532
▁envelope	-10.8543
ent	-10.8543
▁porter	-10.8551
friendly	-10.8557
▁release	-10.8561
▁twin	-10.8568
▁clock	-10.8569
▁pages	-10.8573
▁amiabl	-10.8578
▁cab	-10.8597
took	-10.8606
p	-10.8614
▁deserve	-10.8615
▁completed	-10.8616
▁trained	-10.8622
▁flatter	-10.8622
▁assume	-10.8626
▁natives	-10.8631
▁endeavor	-10.8643
▁wire	-10.8644
▁outward	-10.8645
▁strip	-10.8645
▁frances	-10.8662
▁greenland	-10.8669
▁operator	-10.867
hrew	-10.8676
▁inferior	-10.8683
▁occupation	-10.8686
▁bundle	-10.8689
▁glacier	-10.8689
▁knights	-10.8689
▁weapon	-10.8689
▁warrior	-10.8689
▁doctrine	-10.8693
▁pistol	-10.8694
▁review	-10.8699
▁arrangement	-10.87
▁missing	-10.8709
▁drawer	-10.8712
▁murderer	-10.8714
▁frog	-10.8715
▁novel	-10.8724
▁africa	-10.8733
▁product	-10.8737
▁begg	-10.8738
▁lu	-10.8742
▁agent	-10.8748
▁folk	-10.8751
▁employ	-10.8752
stone	-10.8752
▁desir	-10.8763
▁undertake	-10.8764
▁pulse	-10.8765
▁needle	-10.8769
kin	-10.8774
▁shed	-10.8777
▁enthusiastic	-10.8783
verage	-10.8784
▁adventures	-10.8786
▁uncertain	-10.8793
▁significant	-10.8799
▁admire	-10.8801
▁peaceful	-10.8803
▁flush	-10.8804
▁joyous	-10.8811
▁mail	-10.8811
▁clutch	-10.8812
▁tend	-10.8813
▁priests	-10.8815
▁bunch	-10.8817
▁excess	-10.8821
▁phenomena	-10.8821
▁awkward	-10.8822
ped	-10.8824
▁contradict	-10.8824
▁anthony	-10.8826
▁ceremony	-10.8826
▁kwairyo	-10.8826
▁october	-10.8826
▁parlour	-10.8826
▁caesar	-10.8826
▁pencil	-10.8826
▁spilett	-10.8826
▁wharton	-10.8826
▁craggs	-10.8826
▁felix	-10.8826
▁threshold	-10.8826
▁cossack	-10.8826
▁ridiculous	-10.8826
▁ambitious	-10.8826
▁parlor	-10.8826
▁populace	-10.8826
▁darcy	-10.8826
▁disagreeable	-10.8826
▁detective	-10.8827
▁dwelt	-10.8827
▁wilderness	-10.8827
▁columbia	-10.8827
▁monday	-10.8827
▁department	-10.8827
▁pressure	-10.8827
▁rotten	-10.8827
▁assent	-10.8828
▁elk	-10.8828
▁gratify	-10.8828
▁eminent	-10.8833
▁spain	-10.8833
▁responsibility	-10.8834
▁sensitive	-10.8834
▁holds	-10.8835
▁election	-10.8835
▁eagle	-10.8836
▁suspended	-10.8836
▁sexual	-10.8839
▁tenderness	-10.8839
▁reaction	-10.8839
▁rex	-10.884
▁stove	-10.8842
▁anchor	-10.8843
▁admiring	-10.8847
▁tendenc	-10.8848
▁gross	-10.885
▁gables	-10.885
▁nathan	-10.8851
▁passions	-10.8852
▁farmers	-10.8853
▁perfection	-10.8853
▁latin	-10.8853
▁namely	-10.8854
▁descent	-10.8856
▁inevitable	-10.8859
▁jealousy	-10.8861
▁responsible	-10.8862
▁pleasures	-10.8868
▁greed	-10.8871
dignified	-10.8872
▁faithfully	-10.8875
▁tenth	-10.8879
▁pillars	-10.8881
▁gasped	-10.8882
▁elde	-10.8883
▁swiftly	-10.8885
▁nerves	-10.889
▁judg	-10.8892
▁repeating	-10.8896
▁gasp	-10.8896
▁route	-10.8898
▁supplies	-10.8902
▁bonds	-10.8903
▁arrested	-10.8908
▁encountered	-10.891
▁factor	-10.8918
▁collected	-10.8933
▁rubb	-10.8934
▁relatives	-10.8938
▁cousins	-10.8939
▁feathers	-10.894
▁intervals	-10.8944
▁hedge	-10.8946
▁consented	-10.8948
▁mule	-10.8948
▁avoided	-10.8949
▁lumber	-10.895
▁vital	-10.8958
▁limits	-10.8959
▁arrangements	-10.8965
▁je	-10.8965
▁arise	-10.8974
▁inches	-10.8978
▁darken	-10.8985
▁cord	-10.8998
▁prick	-10.8999
▁traces	-10.9004
▁bite	-10.9026
▁pole	-10.9033
▁homes	-10.9034
▁oldest	-10.9043
▁prayed	-10.9043
▁dat	-10.9047
▁treasures	-10.9048
▁bulls	-10.9048
▁searched	-10.9055
▁angle	-10.9057
my	-10.9092
▁reform	-10.9092
pped	-10.9098
▁apartments	-10.9106
▁writ	-10.9107
▁thoughtful	-10.9107
▁machines	-10.9114
▁bestow	-10.912
▁substitute	-10.9123
▁limit	-10.9128
wed	-10.9155
▁ringing	-10.9158
▁crop	-10.9161
▁buck	-10.9167
▁knot	-10.917
▁whale	-10.9174
▁appetite	-10.9175
▁secur	-10.9176
▁adding	-10.9179
▁polish	-10.9181
▁argu	-10.9183
▁monk	-10.9185
▁notion	-10.9186
▁elbow	-10.9187
▁ladder	-10.919
▁proposal	-10.9191
▁butcher	-10.9219
▁breed	-10.9226
▁quo	-10.9231
duced	-10.9237
▁bother	-10.924
▁drag	-10.9253
▁accomplish	-10.9261
▁fanci	-10.9262
ons	-10.9263
▁bowl	-10.9264
▁glitter	-10.9266
▁depart	-10.9269
mmy	-10.9271
▁strait	-10.9278
▁seal	-10.9287
▁proceeding	-10.9287
▁exceed	-10.9292
▁shiver	-10.9296
▁grim	-10.9302
▁interrupt	-10.9318
▁brig	-10.9325
▁helpless	-10.9325
▁document	-10.9326
▁february	-10.9326
▁grotesque	-10.9326
▁humphrey	-10.9326
▁moscow	-10.9326
▁nicholas	-10.9326
▁obstinate	-10.9326
▁phantom	-10.9326
▁swollen	-10.9326
▁tobacco	-10.9326
▁banquet	-10.9326
▁heatherstone	-10.9326
▁exclamation	-10.9326
▁tunnel	-10.9326
▁butterfly	-10.9326
▁hurstwood	-10.9326
▁japan	-10.9326
▁saloon	-10.9326
▁albert	-10.9326
▁gulf	-10.9326
▁kemp	-10.9326
▁collins	-10.9326
▁friday	-10.9326
▁delicious	-10.9326
▁stringham	-10.9326
▁keats	-10.9326
▁terrific	-10.9326
▁brisk	-10.9326
▁drake	-10.9326
▁defence	-10.9326
▁harbor	-10.9327
▁ninth	-10.9327
▁vault	-10.9327
▁academy	-10.9327
▁dandy	-10.9327
▁providence	-10.9327
▁determination	-10.9327
▁canada	-10.9327
▁complexion	-10.9328
▁button	-10.9328
▁gigant	-10.9329
▁morton	-10.9329
▁babies	-10.9329
▁mountaineer	-10.933
▁digging	-10.933
▁charley	-10.933
▁telephone	-10.933
▁hostile	-10.933
▁ferris	-10.9331
▁abundant	-10.9331
▁horrid	-10.9332
▁whither	-10.9332
▁genie	-10.9332
▁gallery	-10.9332
▁screen	-10.9332
▁commands	-10.9334
▁admirable	-10.9335
▁attraction	-10.9338
▁firmness	-10.934
▁prominent	-10.9341
▁tribute	-10.9341
▁prejudice	-10.9342
▁standard	-10.9343
▁swamp	-10.9343
▁destiny	-10.9345
▁wo	-10.9345
▁behalf	-10.9346
▁destin	-10.9346
▁waist	-10.9346
old	-10.9347
▁strictly	-10.9348
▁footsteps	-10.9352
▁bates	-10.9354
▁upright	-10.9354
▁vice	-10.9355
▁strongest	-10.9357
▁massive	-10.9357
▁emerge	-10.9358
▁personage	-10.936
▁improved	-10.9365
▁politics	-10.9365
▁boiling	-10.9369
▁thoughtfully	-10.9371
▁deed	-10.9371
▁tools	-10.9372
▁kan	-10.9385
▁answers	-10.9387
▁entertained	-10.9387
▁armor	-10.9389
▁cor	-10.9389
▁dora	-10.939
▁highness	-10.9391
cular	-10.9396
▁roaring	-10.9398
▁strict	-10.9401
▁endured	-10.9405
▁cream	-10.9413
▁tones	-10.9422
▁respects	-10.944
▁confessed	-10.944
▁br	-10.9444
ster	-10.9448
▁marks	-10.9448
▁generations	-10.945
▁dun	-10.9454
▁shops	-10.9458
▁penn	-10.9463
▁deni	-10.9463
▁wont	-10.947
▁owl	-10.947
▁thereby	-10.9489
gging	-10.9493
▁dropp	-10.9493
▁unreasonabl	-10.9494
▁bending	-10.9495
▁slid	-10.9497
▁hawk	-10.9505
▁aged	-10.9505
▁murdered	-10.9508
▁linen	-10.9513
▁cage	-10.952
▁cove	-10.952
▁inward	-10.9526
▁flank	-10.9528
▁charged	-10.9536
▁detain	-10.9539
▁entertain	-10.9554
▁bells	-10.9559
▁interven	-10.9561
▁impulses	-10.9569
▁identi	-10.9572
co	-10.9575
▁fathers	-10.9578
▁snakes	-10.9591
▁humm	-10.9602
▁locks	-10.9613
▁consequences	-10.962
eth	-10.9633
▁admiral	-10.9633
▁hers	-10.9636
▁decline	-10.9651
▁wretch	-10.9664
▁ri	-10.9667
▁repair	-10.9668
▁gale	-10.9684
ves	-10.9687
▁kin	-10.9689
▁planet	-10.9698
▁criticism	-10.9706
▁winning	-10.971
▁characteristic	-10.9714
▁wreck	-10.9715
▁pushe	-10.9719
▁remov	-10.972
▁invention	-10.9726
▁busi	-10.9732
light	-10.9732
▁piti	-10.9732
▁talent	-10.9735
ties	-10.9739
▁submitt	-10.9751
▁produc	-10.9762
▁pet	-10.9768
▁inquiri	-10.9771
▁constitute	-10.9774
▁wounds	-10.9774
▁immortal	-10.9782
▁fancie	-10.9791
▁den	-10.9801
▁stalk	-10.9802
ude	-10.9803
▁quot	-10.9805
▁excite	-10.9814
▁grinn	-10.9814
claimed	-10.982
▁liberal	-10.9825
▁compassion	-10.9829
▁republic	-10.9842
▁jewel	-10.9843
▁determine	-10.9851
▁borodino	-10.9852
▁catholic	-10.9852
▁cuthbert	-10.9852
▁democracy	-10.9852
▁merriwig	-10.9852
▁miranda	-10.9852
▁nicholl	-10.9852
▁remembrance	-10.9852
▁rostov	-10.9852
▁underneath	-10.9852
▁uneasiness	-10.9852
▁koyo	-10.9852
▁spencer	-10.9852
▁hypnosis	-10.9852
▁invariabl	-10.9852
▁onlooker	-10.9852
▁plentiful	-10.9852
▁rascal	-10.9852
▁warrant	-10.9852
▁grandcourt	-10.9853
▁unnecessary	-10.9853
▁consolation	-10.9853
▁advertisement	-10.9853
▁revelation	-10.9853
▁wallace	-10.9853
▁augustine	-10.9853
▁encouragement	-10.9853
▁stirring	-10.9853
▁considerably	-10.9854
▁doth	-10.9854
▁lilies	-10.9854
▁upstairs	-10.9854
▁horseback	-10.9854
▁envy	-10.9855
▁policy	-10.9855
▁gravity	-10.9855
▁tempest	-10.9856
▁palm	-10.9856
▁recognition	-10.9856
▁permissi	-10.9856
▁copper	-10.9856
▁complicat	-10.9856
▁corral	-10.9857
▁plunder	-10.9857
▁vexation	-10.9857
▁situated	-10.9857
▁cavell	-10.9858
▁suppos	-10.9861
▁gallop	-10.9861
▁marvelous	-10.9862
▁regretted	-10.9864
▁whistler	-10.9866
▁morality	-10.9867
▁copy	-10.9868
▁dug	-10.987
▁mourning	-10.987
▁armies	-10.9872
ile	-10.9872
itive	-10.9873
▁create	-10.9878
ill	-10.9879
▁laden	-10.9882
▁historic	-10.9883
▁gloves	-10.9888
▁obviously	-10.989
▁statue	-10.9893
▁verses	-10.9894
▁instinctive	-10.9895
▁balls	-10.9895
▁greeting	-10.9896
▁borg	-10.9897
▁manager	-10.9901
▁leagues	-10.9909
▁hush	-10.9909
▁extract	-10.991
▁miller	-10.9914
▁examin	-10.9915
▁sober	-10.9918
▁bind	-10.9919
▁distinctly	-10.992
▁favorabl	-10.992
▁briefly	-10.9924
▁protested	-10.9932
▁discern	-10.994
▁obtaining	-10.9954
▁brutal	-10.9954
▁rope	-10.9957
▁ardent	-10.997
▁painting	-10.9972
ending	-10.9973
ov	-10.9982
▁vow	-10.9987
▁beds	-10.9988
▁detect	-10.9993
▁cards	-11.0008
▁pronounc	-11.0022
▁burns	-11.0023
▁slopes	-11.0023
▁calculate	-11.0029
▁deem	-11.0032
▁homeward	-11.0034
▁bland	-11.0034
▁fe	-11.0043
▁tap	-11.0067
▁volumes	-11.0072
▁coin	-11.0073
▁link	-11.0075
iest	-11.008
▁neighbours	-11.0086
▁victims	-11.0088
▁gra	-11.0088
▁fre	-11.0091
▁howl	-11.0092
▁slice	-11.0093
ors	-11.0099
▁lamb	-11.01
▁guarded	-11.0104
▁mare	-11.0112
▁steer	-11.0129
▁babe	-11.0131
▁hell	-11.0134
capable	-11.0152
romp	-11.0152
▁remarks	-11.0155
▁penetrate	-11.0155
▁reduce	-11.0156
▁whit	-11.016
▁chains	-11.0179
▁solicit	-11.0192
▁suggestions	-11.0194
▁pe	-11.0199
▁debate	-11.02
▁avo	-11.0206
▁merchants	-11.021
▁fer	-11.0211
▁teachers	-11.0216
▁corners	-11.0221
▁embrac	-11.0229
nlea	-11.0232
▁mothers	-11.0233
▁thrill	-11.0233
▁estimate	-11.0236
▁counting	-11.0239
▁wet	-11.0242
▁reports	-11.0242
▁reception	-11.0246
▁naught	-11.0249
ters	-11.0253
▁rights	-11.0253
▁proprietor	-11.0257
▁gardener	-11.0263
▁pattern	-11.0268
▁performance	-11.0268
▁picket	-11.027
▁interval	-11.0272
▁attendant	-11.0272
▁banner	-11.0273
▁generation	-11.0273
▁feature	-11.0273
▁expressions	-11.0274
▁sleeve	-11.0274
▁paraly	-11.0279
▁feather	-11.028
▁downward	-11.0284
▁thence	-11.0291
▁jail	-11.0302
▁cheap	-11.0307
▁tomb	-11.031
▁remembering	-11.0313
shed	-11.0318
▁vein	-11.0326
▁beggar	-11.0328
▁deaf	-11.0329
mous	-11.0343
▁conquer	-11.0347
son	-11.0348
▁refresh	-11.0349
chester	-11.0353
ette	-11.0356
▁onward	-11.0361
▁ventur	-11.0363
▁striv	-11.0364
▁terribl	-11.0366
▁meter	-11.038
▁lonel	-11.0382
▁dense	-11.0383
▁confident	-11.0383
▁decent	-11.0388
▁precise	-11.0389
▁continual	-11.039
▁cars	-11.0395
▁swam	-11.0396
▁resolve	-11.0396
▁behaviour	-11.0408
▁commerce	-11.0408
▁constantinople	-11.0408
▁drouet	-11.0408
▁manuscript	-11.0408
▁tuesday	-11.0408
shaughnessy	-11.0408
▁dwarf	-11.0408
▁lufton	-11.0408
▁tragedy	-11.0408
▁vulgar	-11.0408
▁atlantic	-11.0408
▁salvation	-11.0408
▁waistcoat	-11.0408
▁frigate	-11.0408
▁harvey	-11.0408
▁deasey	-11.0408
▁twilight	-11.0408
▁trigger	-11.0408
▁levison	-11.0408
▁everlasting	-11.0408
▁apology	-11.0408
▁conference	-11.0408
▁cricket	-11.0408
▁restoration	-11.0408
▁vegetable	-11.0408
▁cradle	-11.0409
▁unique	-11.0409
▁wrinkle	-11.0409
▁luxury	-11.0409
▁devotion	-11.0409
▁alexander	-11.0409
▁resemblance	-11.041
▁pudding	-11.041
▁fisherman	-11.041
▁lyra	-11.041
ways	-11.041
▁bidding	-11.0411
▁wireless	-11.0411
▁cruelty	-11.0411
▁undoubtedly	-11.0411
▁barber	-11.0412
▁badger	-11.0412
▁cristo	-11.0413
▁redoubt	-11.0413
▁twig	-11.0413
▁richard	-11.0415
▁blunt	-11.0416
▁admission	-11.0416
▁struggling	-11.0416
▁minded	-11.0417
▁super	-11.0417
▁discipline	-11.0417
▁irresistible	-11.0417
▁hullo	-11.0418
▁surprising	-11.0419
▁liquid	-11.042
▁injustice	-11.042
▁gaily	-11.042
▁grocer	-11.0421
▁expensive	-11.0421
▁lordship	-11.0421
▁drunken	-11.0422
▁capitalist	-11.0423
▁bridle	-11.0423
▁earliest	-11.0424
▁forbidden	-11.0427
▁mirth	-11.0428
▁confirmed	-11.0428
▁replaced	-11.0431
▁intent	-11.0433
▁foster	-11.0433
▁followers	-11.0434
▁approv	-11.0434
▁slain	-11.0435
▁condemned	-11.0435
▁barry	-11.0436
▁india	-11.0438
▁wives	-11.0444
▁carter	-11.0445
▁injured	-11.0445
▁blade	-11.0446
▁expert	-11.0446
▁consulted	-11.0446
▁whistle	-11.0447
▁radiant	-11.0447
▁acres	-11.0448
▁ardan	-11.045
▁wages	-11.0452
▁soothing	-11.0453
▁practised	-11.0457
▁quicker	-11.0462
▁resolute	-11.0466
▁musketeers	-11.0468
▁fiercely	-11.0468
▁dispute	-11.0475
▁blossoms	-11.0476
▁institutions	-11.0477
ay	-11.0478
weary	-11.0481
▁existing	-11.0486
▁bang	-11.0488
▁crooked	-11.049
▁overflow	-11.0494
▁distract	-11.0496
▁promises	-11.0506
▁gleaming	-11.0508
▁tax	-11.0511
▁drifted	-11.0513
▁constanc	-11.0521
liable	-11.0521
▁provinces	-11.0522
▁spared	-11.0525
▁tacit	-11.0531
▁cutter	-11.0534
▁sticks	-11.0541
▁patron	-11.0544
pie	-11.0545
▁myles	-11.0546
▁swimm	-11.0548
▁adjo	-11.0549
▁cub	-11.055
▁soup	-11.0556
▁wig	-11.0557
sburg	-11.0562
▁equipp	-11.0566
▁settl	-11.0571
▁tars	-11.0575
▁personally	-11.0579
▁finer	-11.0582
▁reliev	-11.0587
with	-11.0587
▁fist	-11.0596
ered	-11.0602
stock	-11.0606
▁stro	-11.0626
▁apples	-11.063
▁logs	-11.0631
oes	-11.0632
▁storms	-11.064
▁wonders	-11.0652
▁greatness	-11.0656
▁preach	-11.0665
▁bye	-11.0671
▁prey	-11.0674
foot	-11.0674
▁sha	-11.068
▁fade	-11.069
▁experiment	-11.0691
▁suggesti	-11.0695
▁problems	-11.0698
sus	-11.0698
▁stake	-11.0706
▁wipe	-11.0726
▁differently	-11.0731
▁plead	-11.0732
▁crest	-11.0751
▁hinder	-11.0751
▁wool	-11.0761
▁derive	-11.0765
▁pope	-11.0772
▁dy	-11.0776
▁fin	-11.0792
▁agoni	-11.0802
▁scout	-11.0804
▁ghosts	-11.0806
▁pur	-11.0809
▁mar	-11.0812
▁studio	-11.0815
da	-11.0824
▁male	-11.0827
▁pipes	-11.0828
▁relative	-11.0838
▁singer	-11.084
ra	-11.084
▁closet	-11.0843
▁ants	-11.0852
▁temptation	-11.0854
▁shower	-11.0855
▁portrait	-11.0857
▁canoe	-11.0859
▁spi	-11.086
▁sub	-11.0861
▁lovers	-11.0863
▁oyster	-11.0864
ving	-11.0866
▁fires	-11.0872
▁perceiv	-11.0886
▁courtes	-11.0889
dding	-11.0891
lately	-11.0891
▁crash	-11.0891
▁val	-11.0892
▁equip	-11.0902
▁affections	-11.0903
▁mines	-11.0906
▁spear	-11.0914
▁torture	-11.0915
▁ruins	-11.0927
▁disgrace	-11.0927
▁formal	-11.093
wing	-11.094
rang	-11.0947
▁colors	-11.0947
▁roofs	-11.0952
▁unworth	-11.0956
▁basin	-11.0956
▁adopt	-11.0957
▁haunt	-11.0958
ok	-11.096
▁ascertain	-11.0963
▁commercial	-11.0964
▁dismal	-11.097
▁favourabl	-11.0971
▁lasted	-11.0974
▁guilt	-11.0976
▁mess	-11.0982
▁hobb	-11.0987
▁abbe	-11.0988
ding	-11.0989
▁suspicious	-11.099
▁retire	-11.099
▁cucumetto	-11.0996
▁epoch	-11.0996
▁norhala	-11.0996
▁pastrini	-11.0996
▁phronsie	-11.0996
▁negative	-11.0996
▁crayfish	-11.0996
▁crimson	-11.0996
▁extensive	-11.0996
▁december	-11.0996
▁mysteries	-11.0996
▁pacific	-11.0996
▁ethel	-11.0996
▁gloody	-11.0996
▁patriotism	-11.0996
▁pepper	-11.0996
▁dinah	-11.0996
▁grandeur	-11.0996
▁asylum	-11.0996
▁shrewd	-11.0996
▁introduction	-11.0996
▁magua	-11.0996
▁landlord	-11.0997
▁sonya	-11.0997
▁transport	-11.0997
▁resentment	-11.0997
▁hypnotism	-11.0997
▁errand	-11.0997
▁magician	-11.0997
▁appreciation	-11.0998
▁ferocious	-11.0998
▁cluster	-11.0998
▁languid	-11.0998
▁selfish	-11.0998
▁ohio	-11.0999
▁insignificant	-11.0999
▁disaster	-11.0999
▁clavier	-11.0999
▁management	-11.0999
▁reverence	-11.1
▁drama	-11.1
▁agnes	-11.1
▁beech	-11.1001
▁dantes	-11.1001
▁shilling	-11.1001
▁studies	-11.1002
▁compound	-11.1002
▁tread	-11.1003
▁vexed	-11.1003
▁jury	-11.1004
▁sancho	-11.1005
▁conquest	-11.1005
▁analysis	-11.1006
▁appointment	-11.1006
▁quantity	-11.1007
▁rounded	-11.1007
▁cautiously	-11.1009
▁energetic	-11.101
▁utterance	-11.101
▁indication	-11.1011
▁communication	-11.1011
▁knitting	-11.1012
▁hull	-11.1014
▁entitle	-11.1015
sisted	-11.1018
▁stockings	-11.1021
▁majestic	-11.1022
▁sermon	-11.1022
▁expand	-11.1025
▁confounded	-11.1027
▁chuckled	-11.103
▁sustained	-11.1033
▁captive	-11.1036
▁sept	-11.1038
▁couch	-11.1039
▁turnip	-11.1039
▁cable	-11.1039
▁lush	-11.1039
▁factory	-11.104
▁victor	-11.1041
▁tempted	-11.1042
▁guineas	-11.1043
▁curve	-11.1045
ries	-11.1049
▁eighteenth	-11.1052
▁discharge	-11.1053
▁glittering	-11.1053
▁revived	-11.1055
▁examining	-11.1056
▁binding	-11.1059
▁hardship	-11.1062
▁endeavored	-11.1064
ining	-11.1071
▁terrace	-11.1072
ailed	-11.1079
▁meetings	-11.1083
▁critical	-11.1084
upon	-11.1084
▁plays	-11.1089
▁advise	-11.1091
▁jean	-11.1093
▁virgin	-11.1093
▁marsh	-11.1096
▁notic	-11.1096
▁travelled	-11.1102
berries	-11.1103
▁clearing	-11.1108
▁rib	-11.111
up	-11.1111
▁cheering	-11.1113
▁puritan	-11.1115
▁cracked	-11.1119
▁realm	-11.112
▁baker	-11.1121
▁highway	-11.1121
▁based	-11.1127
▁tre	-11.1132
▁plac	-11.1144
▁folds	-11.1151
▁resent	-11.1155
▁proceedings	-11.1163
▁marvel	-11.1169
rushing	-11.1171
▁bolt	-11.1175
▁har	-11.1179
▁bon	-11.1189
▁failing	-11.119
▁marching	-11.1192
▁martians	-11.1192
▁compar	-11.1202
lf	-11.1212
▁formation	-11.1213
▁sources	-11.1215
▁lions	-11.1221
▁genial	-11.1226
fully	-11.1229
▁seed	-11.1255
▁rivers	-11.1267
▁reflections	-11.127
▁convert	-11.1275
▁regain	-11.1276
▁cows	-11.1284
▁marrying	-11.1313
▁spy	-11.1318
fish	-11.1319
▁casual	-11.1319
▁coldly	-11.1322
▁chee	-11.1326
▁wander	-11.1328
▁lance	-11.1334
▁bre	-11.1336
▁refer	-11.134
▁pines	-11.1349
▁sale	-11.1352
▁confine	-11.1353
▁wasted	-11.1354
▁await	-11.1356
▁maud	-11.1369
▁tooth	-11.1372
▁fortunes	-11.1374
▁particulars	-11.1376
▁roger	-11.1398
▁ministers	-11.1412
tting	-11.1413
ching	-11.1417
▁ankle	-11.1436
▁wars	-11.144
▁sore	-11.1447
▁extremit	-11.1449
▁fr	-11.1451
▁instruct	-11.1454
▁visits	-11.1463
▁gap	-11.1466
▁trans	-11.1468
▁possib	-11.1472
▁heroine	-11.1475
▁annual	-11.1476
▁lessen	-11.1476
▁convict	-11.1477
▁honey	-11.148
▁chimney	-11.148
▁miracle	-11.148
▁shad	-11.1482
▁coachm	-11.1483
▁monkey	-11.1484
▁pupil	-11.1484
▁violet	-11.1486
▁thicket	-11.1496
▁vine	-11.1506
▁wanting	-11.1507
▁model	-11.1512
▁restrain	-11.1518
▁missis	-11.1521
▁sins	-11.1522
▁observer	-11.1522
▁hum	-11.1522
▁mob	-11.153
▁champion	-11.1536
▁concert	-11.1537
▁induce	-11.1548
▁dur	-11.1551
ak	-11.1571
sippi	-11.1571
suitable	-11.1577
▁convention	-11.1578
▁thorn	-11.1579
▁trifl	-11.1592
▁uproar	-11.1596
▁mohammed	-11.1604
ember	-11.1611
▁shal	-11.1612
▁ere	-11.1612
▁bi	-11.1617
▁sheer	-11.1617
musing	-11.1617
▁egypt	-11.1617
▁irregular	-11.162
verkov	-11.1621
▁attorney	-11.1621
▁carthage	-11.1621
▁cavalcanti	-11.1621
▁cromwell	-11.1621
▁gimblet	-11.1621
▁hardquanonne	-11.1621
▁oglethorpe	-11.1621
▁petticoat	-11.1621
▁rehnhjelm	-11.1621
▁twentieth	-11.1621
▁veteran	-11.1621
▁houarn	-11.1621
▁mackinson	-11.1621
▁remnant	-11.1621
▁whittaker	-11.1621
▁memorable	-11.1621
▁ingenious	-11.1621
▁generosity	-11.1621
▁orleans	-11.1621
▁siege	-11.1621
▁cardinal	-11.1621
▁comparison	-11.1621
▁falander	-11.1621
▁assault	-11.1621
▁applause	-11.1621
▁scotland	-11.1621
▁thirtieth	-11.1621
▁judith	-11.1621
▁ventnor	-11.1621
▁possum	-11.1621
▁envoy	-11.1621
▁wingfold	-11.1621
▁exhaustion	-11.1621
▁simonov	-11.1621
▁perplexity	-11.1621
▁superintendent	-11.1621
▁barbarous	-11.1622
▁marianne	-11.1622
▁loki	-11.1622
▁densher	-11.1622
▁testimony	-11.1622
▁standpoint	-11.1622
▁fortnight	-11.1622
▁templeton	-11.1622
▁spider	-11.1622
▁navy	-11.1623
▁sarah	-11.1623
▁simpleton	-11.1623
▁separation	-11.1623
▁transferred	-11.1624
▁procession	-11.1624
▁undertaking	-11.1624
▁clump	-11.1624
▁doyle	-11.1625
▁pomp	-11.1625
▁moose	-11.1625
▁exhibition	-11.1625
▁weariness	-11.1625
▁confide	-11.1625
▁delicacy	-11.1627
▁parson	-11.1627
▁occasional	-11.1628
▁anticipated	-11.1628
▁adela	-11.1628
▁accomplishment	-11.1629
▁injury	-11.1629
▁basis	-11.163
▁tyrant	-11.163
▁startling	-11.163
▁clung	-11.163
▁gnaw	-11.1631
▁levin	-11.1631
▁refined	-11.1631
▁chalk	-11.1632
▁sprawl	-11.1633
▁recess	-11.1633
▁introduce	-11.1634
▁resort	-11.1635
▁ancestors	-11.1635
▁personality	-11.1635
▁picturesque	-11.1636
▁located	-11.1636
▁deliberately	-11.1638
▁dependent	-11.1638
▁gratified	-11.1638
▁challenge	-11.1639
▁parry	-11.1639
▁rejoicing	-11.1639
▁stool	-11.164
▁ta	-11.1641
▁borrowed	-11.1643
▁pitiful	-11.1644
▁ab	-11.1645
▁continent	-11.1646
▁celebrated	-11.1648
▁harry	-11.1649
ball	-11.1651
▁roby	-11.1657
▁inventor	-11.1657
▁ch	-11.1663
▁pluck	-11.1663
▁handful	-11.1663
▁prevailed	-11.1666
▁sickness	-11.1666
▁mice	-11.1666
▁film	-11.1668
▁altar	-11.1668
▁harrow	-11.1668
▁offended	-11.1669
▁thereafter	-11.1671
▁periods	-11.1674
▁waking	-11.1674
▁repay	-11.1678
▁travelers	-11.168
▁typ	-11.1682
▁saving	-11.1684
coming	-11.1685
▁fragments	-11.1688
▁weston	-11.1694
▁decree	-11.1695
▁effective	-11.1699
▁menace	-11.1699
▁defeated	-11.1706
▁abandoned	-11.1706
▁specimens	-11.1707
▁nemo	-11.1718
▁liking	-11.1719
efficient	-11.1719
▁assemble	-11.1721
▁peck	-11.1725
▁automatic	-11.1726
▁thereupon	-11.173
ner	-11.1741
▁appar	-11.1746
▁vanit	-11.1751
▁axe	-11.1752
ations	-11.1755
▁convicts	-11.1763
▁harp	-11.1764
▁grip	-11.1764
▁railing	-11.1768
▁resisted	-11.1772
▁experiments	-11.1776
▁afforded	-11.1778
▁retreated	-11.1791
▁vary	-11.1792
▁ate	-11.1796
▁fuss	-11.1802
▁writes	-11.1806
▁forsake	-11.1816
▁hunted	-11.1821
▁curse	-11.1821
▁boot	-11.1824
▁establishe	-11.1825
▁depended	-11.1831
▁earn	-11.1832
▁rash	-11.1836
▁kenne	-11.1836
▁inn	-11.1844
▁piles	-11.1845
ney	-11.1847
▁traverse	-11.1849
▁arrow	-11.1851
set	-11.1851
▁parent	-11.1858
▁withdraw	-11.1858
▁lull	-11.1859
▁carrie	-11.1891
ma	-11.1893
▁halls	-11.1902
pierced	-11.1906
▁sway	-11.1913
▁combine	-11.1913
▁exceptional	-11.1913
▁imp	-11.1916
▁slippe	-11.192
shaw	-11.1921
▁resemble	-11.193
▁readers	-11.1931
▁angels	-11.1937
▁dive	-11.1938
▁pan	-11.1938
▁vacan	-11.1941
▁schools	-11.1949
▁diminish	-11.1952
▁chuck	-11.1956
ium	-11.1964
▁regions	-11.1974
▁switch	-11.1976
▁limp	-11.1978
▁leaders	-11.1984
▁savages	-11.1985
▁gri	-11.1997
▁overlook	-11.2008
▁shoe	-11.201
▁arguments	-11.201
▁ripe	-11.2012
▁intima	-11.2013
▁colour	-11.2023
▁pains	-11.2024
▁conclude	-11.2055
▁sob	-11.2066
▁charms	-11.2066
here	-11.2077
▁orderly	-11.2079
▁select	-11.2091
▁glances	-11.21
ingly	-11.211
▁chang	-11.2111
▁cannon	-11.2112
▁jer	-11.2119
▁skeleton	-11.2124
turned	-11.2125
▁pr	-11.2127
▁ceiling	-11.2135
▁squirrel	-11.2139
▁sack	-11.214
▁guarantee	-11.2141
▁rattle	-11.2143
▁projectile	-11.2143
▁belongs	-11.2143
▁achievement	-11.2147
▁opponent	-11.2148
▁assertion	-11.2148
▁quicken	-11.215
▁brute	-11.215
field	-11.215
▁halt	-11.2151
▁province	-11.2152
▁historian	-11.2152
▁mouths	-11.2153
▁weaken	-11.216
▁access	-11.2172
roche	-11.218
▁tolerabl	-11.2206
aries	-11.2208
▁steward	-11.2213
▁fulfil	-11.2219
▁sweat	-11.2224
▁slaughter	-11.2224
meer	-11.2237
▁dealing	-11.2239
▁inevitabl	-11.2241
▁feller	-11.2242
▁frighten	-11.2244
▁attain	-11.2247
▁paradi	-11.2248
▁egg	-11.2251
▁keys	-11.2251
▁pledge	-11.2258
▁marvellous	-11.2258
▁hesitating	-11.2263
▁deceive	-11.2268
▁thankful	-11.2278
▁despise	-11.2283
▁bartholemy	-11.2287
▁citoyen	-11.2287
▁elephant	-11.2287
▁fernando	-11.2287
▁ferralti	-11.2287
▁foliage	-11.2287
▁labyrinth	-11.2287
▁shroud	-11.2287
▁tarkas	-11.2287
▁velvet	-11.2287
▁kavin	-11.2288
▁millionaire	-11.2288
▁squadron	-11.2288
▁glimmer	-11.2288
▁wadman	-11.2288
▁twinkling	-11.2288
▁thornton	-11.2288
▁apron	-11.2288
▁scrapper	-11.2288
▁wolves	-11.2288
▁gratification	-11.2288
▁involuntarily	-11.2288
▁splendor	-11.2288
▁imaginary	-11.2288
▁channing	-11.2288
▁martha	-11.2288
▁temperature	-11.2288
▁brink	-11.2288
▁flask	-11.2289
▁unequal	-11.2289
▁refrain	-11.2289
▁dumb	-11.2289
▁gambling	-11.229
▁baroness	-11.229
▁theodora	-11.229
▁jones	-11.229
▁famine	-11.2291
▁felicity	-11.2291
▁attentive	-11.2292
▁desolate	-11.2292
▁flint	-11.2292
▁socialist	-11.2293
▁shrill	-11.2293
▁ruggles	-11.2293
▁ominous	-11.2293
▁demonstration	-11.2294
▁screw	-11.2294
▁haughty	-11.2294
▁rebellion	-11.2295
▁relationship	-11.2295
▁lucas	-11.2295
▁piteous	-11.2297
▁perverse	-11.2297
▁bonnet	-11.2298
▁climate	-11.2299
▁propriety	-11.2299
▁medea	-11.2299
▁stricken	-11.23
▁disregard	-11.23
▁republican	-11.23
▁amabel	-11.2301
▁huron	-11.2302
▁alert	-11.2302
▁ultimately	-11.2302
▁imperfect	-11.2303
▁embarrassed	-11.2303
▁squeak	-11.2304
▁exert	-11.2304
▁trout	-11.2304
▁choked	-11.2305
arily	-11.2307
▁brooding	-11.2308
▁alongside	-11.231
▁democratic	-11.2313
▁ruby	-11.2313
▁tomorrow	-11.2316
▁consult	-11.2316
▁streak	-11.2317
▁certainty	-11.2318
▁executed	-11.2318
▁harmless	-11.2318
▁riot	-11.2319
▁fowl	-11.2319
▁sellen	-11.2321
▁intently	-11.2322
▁persisted	-11.2323
▁robbed	-11.2327
▁robbery	-11.2327
▁quaint	-11.2329
ists	-11.2329
▁varied	-11.233
▁arisen	-11.233
▁enrage	-11.2332
▁mute	-11.2332
▁impatiently	-11.2332
dy	-11.2333
▁solution	-11.2335
▁mansion	-11.2335
▁affirm	-11.2345
▁remarkabl	-11.2346
▁topic	-11.2346
▁mixed	-11.2347
▁division	-11.2352
▁parallel	-11.2356
▁gi	-11.236
▁paws	-11.236
▁fluttering	-11.2362
▁salute	-11.2365
▁mac	-11.2367
▁enclos	-11.2367
▁resources	-11.237
▁nobles	-11.237
▁armand	-11.2372
▁conceived	-11.2374
▁claws	-11.2376
▁ju	-11.2376
▁drown	-11.2376
▁grunt	-11.2377
▁empti	-11.2388
ping	-11.2391
▁northward	-11.2391
ardly	-11.24
▁blessed	-11.2401
▁rulers	-11.2404
▁originally	-11.2408
▁trous	-11.2409
▁blushing	-11.2411
rank	-11.2435
▁monkeys	-11.2437
▁oysters	-11.2445
▁shots	-11.2453
▁banners	-11.2455
▁shallow	-11.2457
▁sleeves	-11.2463
▁scholar	-11.2471
▁cooking	-11.2471
▁spots	-11.2479
▁arab	-11.2482
▁fertil	-11.2483
thful	-11.2484
▁doctrines	-11.2485
▁glaciers	-11.2485
▁backs	-11.249
▁deserves	-11.2492
▁equall	-11.2495
▁oar	-11.2503
▁associations	-11.2514
▁cleaning	-11.2522
▁infern	-11.2523
▁columns	-11.253
▁argue	-11.2531
▁rat	-11.2534
▁copie	-11.2538
▁steamers	-11.2545
▁arts	-11.2546
▁editor	-11.2554
stained	-11.2554
▁easi	-11.2564
▁publicly	-11.2568
▁sire	-11.2571
▁pitt	-11.2573
▁smoked	-11.2574
▁semi	-11.2583
▁wax	-11.2586
▁images	-11.2592
▁dam	-11.2595
▁cured	-11.2596
▁fortress	-11.2598
▁glare	-11.2601
▁rob	-11.2614
▁mast	-11.2614
▁tips	-11.2614
be	-11.2614
▁medicines	-11.2619
▁imitate	-11.262
▁rebel	-11.2622
worth	-11.2628
atus	-11.2631
ware	-11.2631
▁cock	-11.2634
rence	-11.2644
▁vo	-11.2647
▁happening	-11.2647
▁gravel	-11.2657
▁brows	-11.2659
▁operate	-11.2663
▁suspicions	-11.2665
▁webb	-11.2685
orry	-11.2691
▁snatch	-11.2695
▁hood	-11.2698
▁drug	-11.2698
▁include	-11.2705
▁pal	-11.2707
▁walker	-11.2716
▁dispatch	-11.2716
▁races	-11.2727
▁ru	-11.273
ence	-11.2735
▁rejoice	-11.2739
▁crimes	-11.2745
▁soften	-11.2748
▁ge	-11.2755
▁ranks	-11.2759
▁doctors	-11.2768
▁tin	-11.278
▁engine	-11.282
ul	-11.2831
▁menstrua	-11.2836
etting	-11.2839
▁legislature	-11.2848
▁protector	-11.2849
▁wrath	-11.2849
▁disgust	-11.2852
▁cellar	-11.2855
▁torment	-11.2856
▁salut	-11.2857
▁shave	-11.286
▁physicians	-11.2868
▁sque	-11.2873
▁examples	-11.2877
▁loaf	-11.2877
▁traveller	-11.2882
▁bal	-11.2883
▁lodging	-11.2883
▁import	-11.289
▁petition	-11.2891
▁noses	-11.2894
rought	-11.291
▁fearless	-11.2913
▁ski	-11.2934
▁shudder	-11.2942
▁cris	-11.2943
▁rider	-11.2943
▁ol	-11.2953
▁engage	-11.2963
▁convince	-11.2964
let	-11.2975
▁mists	-11.298
▁syria	-11.2982
▁respectful	-11.2982
▁guid	-11.2987
▁worm	-11.2988
▁whi	-11.2989
▁breathless	-11.2992
▁plot	-11.2992
▁boar	-11.2995
ri	-11.2996
▁starv	-11.2996
▁chancellor	-11.3
▁mosquito	-11.3002
▁abominabl	-11.3002
▁cathedral	-11.3002
▁excursion	-11.3002
▁harvard	-11.3002
▁mesopotamia	-11.3002
▁restaurant	-11.3002
▁scientist	-11.3002
▁shalmaneser	-11.3002
▁territory	-11.3002
▁traffic	-11.3002
▁amateur	-11.3002
▁duchess	-11.3002
▁furnace	-11.3002
▁nowadays	-11.3002
▁bristol	-11.3002
▁dietrich	-11.3002
▁remonstrance	-11.3002
▁vicinity	-11.3002
▁opportunities	-11.3002
▁invalid	-11.3002
▁montoni	-11.3002
▁buckingham	-11.3002
▁teapot	-11.3002
▁intensity	-11.3002
▁artillery	-11.3002
▁hamlet	-11.3002
▁narrative	-11.3002
▁coulson	-11.3002
▁dudley	-11.3002
▁laura	-11.3002
▁ellison	-11.3002
▁munger	-11.3002
▁rectangle	-11.3002
▁tidings	-11.3002
▁touchett	-11.3002
▁unaware	-11.3002
▁perfume	-11.3002
▁enlist	-11.3002
▁crevice	-11.3003
▁harbour	-11.3003
▁antiquity	-11.3003
▁attachment	-11.3003
▁parsonage	-11.3003
▁debray	-11.3003
▁skull	-11.3003
▁signature	-11.3003
▁merciless	-11.3003
▁relax	-11.3003
▁supposition	-11.3004
▁teddy	-11.3004
▁corrupt	-11.3004
▁chopin	-11.3004
▁partition	-11.3004
▁preference	-11.3004
▁minnow	-11.3004
▁amuse	-11.3004
▁competitor	-11.3004
▁indescribable	-11.3004
▁abnormal	-11.3004
▁employment	-11.3004
▁boyhood	-11.3005
▁barton	-11.3005
▁hateful	-11.3005
▁elevation	-11.3005
▁advertising	-11.3005
▁sneak	-11.3006
▁newberry	-11.3006
▁duration	-11.3006
▁continuous	-11.3006
▁adversary	-11.3006
▁policeman	-11.3007
▁walter	-11.3007
▁armour	-11.3007
▁wigan	-11.3007
▁abode	-11.3007
▁raspberr	-11.3008
▁nobleman	-11.3008
rity	-11.3008
adig	-11.3009
▁objective	-11.3009
▁workhouse	-11.301
▁psychology	-11.3011
▁register	-11.3011
▁incredible	-11.3011
▁clapp	-11.3012
▁johnson	-11.3012
ced	-11.3012
▁extinguished	-11.3013
▁defined	-11.3015
▁minor	-11.3015
▁settlement	-11.3016
▁excessive	-11.3016
▁feminin	-11.3016
▁assurance	-11.3016
▁nineteenth	-11.3017
▁promising	-11.3017
▁data	-11.3017
▁snuff	-11.3017
ham	-11.3018
▁substantial	-11.3019
town	-11.3021
▁hurled	-11.3021
▁patent	-11.3022
▁rag	-11.3024
▁flies	-11.3024
▁expedient	-11.3024
▁alliance	-11.3024
▁hither	-11.3025
▁bleeding	-11.3025
dramatic	-11.3025
▁impart	-11.3025
▁jackal	-11.3026
▁justified	-11.3026
un	-11.3028
▁elected	-11.3028
▁fuegians	-11.3028
▁nostrils	-11.3029
▁nobility	-11.303
▁georgia	-11.303
▁norway	-11.303
▁wreath	-11.303
▁joyfully	-11.3031
▁panel	-11.3032
▁professed	-11.3035
▁coloni	-11.3035
▁defect	-11.3036
▁advertiser	-11.3037
▁crust	-11.3037
▁attractive	-11.3037
▁undertaken	-11.3039
▁respectfully	-11.304
▁birch	-11.304
▁reap	-11.3041
▁executioner	-11.3044
▁wavering	-11.3044
▁cuban	-11.3048
▁awakening	-11.3048
bation	-11.3052
▁joint	-11.3056
▁tube	-11.3057
▁sandy	-11.3061
▁spectator	-11.3063
▁disgusted	-11.3064
▁chiu	-11.3072
▁annett	-11.3076
▁shivered	-11.3076
▁tenant	-11.308
▁severely	-11.3082
▁weari	-11.3084
▁scamper	-11.3087
▁tranquil	-11.3087
▁array	-11.309
▁flourish	-11.309
▁rub	-11.3091
▁refreshed	-11.3094
▁approve	-11.3099
▁screaming	-11.3099
pher	-11.3102
▁sinking	-11.3102
▁emphasis	-11.3109
▁lend	-11.311
▁stud	-11.3111
▁smash	-11.3112
ightened	-11.3115
▁lounge	-11.3115
▁groaned	-11.3117
tercourse	-11.3119
▁joyful	-11.312
▁divide	-11.312
▁deserved	-11.3121
▁peculiarly	-11.3122
▁complaints	-11.3122
▁upset	-11.3124
▁weird	-11.3125
▁entreat	-11.3127
▁survive	-11.3129
▁lifeless	-11.313
▁mon	-11.3131
ility	-11.3134
▁theories	-11.3136
▁attained	-11.3139
▁sheltered	-11.3139
▁unlike	-11.3139
much	-11.314
▁lacking	-11.3142
▁champ	-11.3143
▁rags	-11.3144
▁travellers	-11.3145
▁proudly	-11.3147
▁bend	-11.3148
no	-11.3149
▁ditch	-11.3149
fare	-11.3151
▁inspire	-11.3156
▁forbear	-11.3159
▁voted	-11.3162
▁pickets	-11.3166
factories	-11.3169
▁lads	-11.3182
▁blast	-11.3182
▁canoes	-11.3188
▁unanimous	-11.319
▁colon	-11.3191
▁stormy	-11.3198
▁goal	-11.32
▁wits	-11.3204
▁heel	-11.3205
▁unity	-11.3205
▁sounding	-11.3213
▁boards	-11.3219
▁disciples	-11.3221
▁bald	-11.323
▁foreigner	-11.3234
▁workers	-11.3241
▁communicat	-11.3245
tic	-11.3252
▁horns	-11.3254
ified	-11.3257
▁pla	-11.3262
▁fern	-11.3265
▁ger	-11.3268
▁slighte	-11.3276
▁bruise	-11.3282
▁ob	-11.3282
▁moderate	-11.3286
▁mace	-11.3297
▁lent	-11.332
▁unit	-11.3321
▁witch	-11.3327
▁hatch	-11.3331
▁brag	-11.3331
woman	-11.3332
arian	-11.3333
tha	-11.3338
▁wid	-11.334
▁ragg	-11.3343
▁forc	-11.3347
▁thereof	-11.3349
▁repress	-11.3352
his	-11.3358
▁contrive	-11.337
▁ashes	-11.3373
▁max	-11.3378
▁showe	-11.3387
gotten	-11.3404
hand	-11.3414
serted	-11.3426
ral	-11.3435
ground	-11.344
▁villages	-11.3442
▁circles	-11.3466
den	-11.3473
▁comforted	-11.3479
▁artistic	-11.3485
▁treason	-11.3496
▁flee	-11.3498
▁lands	-11.3503
▁wines	-11.3508
▁spit	-11.3519
▁slap	-11.3525
▁considerations	-11.3525
▁jess	-11.3537
▁undergo	-11.3541
▁chanced	-11.3546
gon	-11.3546
▁accuse	-11.3548
▁acquaintances	-11.3548
▁agitat	-11.3565
▁litera	-11.3565
▁dispos	-11.3572
believing	-11.3572
serving	-11.3576
ha	-11.3581
▁lamps	-11.3585
ut	-11.3588
▁repent	-11.3599
▁fails	-11.36
yard	-11.3603
ke	-11.3607
sed	-11.3608
▁southward	-11.3609
▁journal	-11.361
▁catastrophe	-11.3617
▁falsehood	-11.3623
▁musket	-11.3623
▁lobster	-11.3626
▁wrist	-11.3635
▁instruction	-11.3636
▁logic	-11.3638
▁edition	-11.3638
▁grape	-11.3639
▁maple	-11.3639
if	-11.3646
▁stair	-11.3646
▁crush	-11.3647
▁commissioner	-11.3649
▁tri	-11.3651
wood	-11.3654
wfully	-11.3656
▁homo	-11.3657
▁gesticulat	-11.3658
em	-11.3659
▁ladd	-11.3661
▁maxim	-11.3663
▁tricks	-11.3666
▁nurs	-11.3671
waited	-11.3674
▁dig	-11.3677
▁exchang	-11.3679
▁skirt	-11.3688
▁tad	-11.369
waiting	-11.3702
▁nat	-11.3708
▁sw	-11.3711
▁bet	-11.3716
▁eh	-11.3716
▁shrink	-11.3716
▁prevail	-11.3719
▁bond	-11.3719
▁gav	-11.3721
▁cottages	-11.3722
▁devour	-11.373
▁rhythm	-11.3731
im	-11.3739
▁legitimate	-11.3739
ible	-11.3742
▁conjecture	-11.3743
▁affectionate	-11.3748
▁sorrowful	-11.3748
▁clubs	-11.3749
▁stewar	-11.3751
▁sights	-11.3751
▁vigor	-11.3753
line	-11.3757
eric	-11.3757
▁cultivate	-11.3758
▁swarm	-11.3767
▁sullen	-11.3767
▁lament	-11.3768
▁abyss	-11.3771
▁archibald	-11.3771
▁bechamel	-11.3771
▁bourgeois	-11.3771
▁cemetery	-11.3771
▁chocolate	-11.3771
▁croxley	-11.3771
▁deronda	-11.3771
▁euralia	-11.3771
▁henrietta	-11.3771
▁kihachi	-11.3771
▁nephew	-11.3771
▁savonarola	-11.3771
▁serpent	-11.3771
▁soussio	-11.3771
▁veronica	-11.3771
▁villona	-11.3771
▁wednesday	-11.3771
▁vampa	-11.3771
▁genteel	-11.3771
▁tebbs	-11.3771
▁martineau	-11.3771
▁michael	-11.3771
▁oxford	-11.3771
▁activities	-11.3771
▁churchwarden	-11.3771
▁staircase	-11.3771
▁baggage	-11.3771
▁essence	-11.3771
▁enrich	-11.3771
▁happier	-11.3771
▁patricius	-11.3771
▁prosperity	-11.3771
▁displeasure	-11.3771
▁ushant	-11.3771
▁enforce	-11.3771
▁shasta	-11.3771
▁monotonous	-11.3771
▁matron	-11.3771
▁jefferson	-11.3771
▁occupant	-11.3772
▁marquis	-11.3772
▁sombre	-11.3772
▁chapel	-11.3772
▁stepmother	-11.3772
▁drowsy	-11.3772
▁samson	-11.3772
▁imitation	-11.3772
▁guardian	-11.3772
▁interference	-11.3773
▁chaos	-11.3773
▁festival	-11.3773
▁lavish	-11.3773
▁downstairs	-11.3773
▁entreaties	-11.3773
▁exciting	-11.3773
▁missionary	-11.3773
▁damsel	-11.3773
▁worried	-11.3774
▁pretension	-11.3774
▁urgent	-11.3774
▁senate	-11.3774
▁chirp	-11.3774
▁customary	-11.3774
▁jelly	-11.3774
▁outfit	-11.3775
▁insurrection	-11.3775
▁blake	-11.3775
▁readiness	-11.3775
▁persian	-11.3776
▁bulk	-11.3777
▁railway	-11.3778
▁calamity	-11.3778
xter	-11.3778
▁vandals	-11.3778
▁rapture	-11.3778
▁simultaneously	-11.3778
▁whiskers	-11.3779
▁comfortably	-11.3779
▁possibilities	-11.378
▁denial	-11.3781
▁superb	-11.3781
▁slippery	-11.3781
▁doomed	-11.3781
que	-11.3783
▁ensued	-11.3783
▁beeches	-11.3783
▁perplexed	-11.3786
▁sympathetic	-11.3786
▁adjustment	-11.3787
▁babylon	-11.3789
▁lapse	-11.3789
▁brick	-11.379
▁indignantly	-11.3791
▁scenery	-11.3791
▁doubts	-11.3792
▁chart	-11.3794
▁tough	-11.3794
▁fashionable	-11.3795
▁premises	-11.3795
▁launched	-11.3796
▁cargo	-11.3796
▁madness	-11.3796
▁imperial	-11.3797
▁administer	-11.3798
▁sixteenth	-11.3798
▁enchanted	-11.3801
ight	-11.3801
sylvan	-11.3802
▁packet	-11.3802
▁achieved	-11.3805
▁annoyed	-11.3805
▁margin	-11.3805
▁forbes	-11.3806
▁grimly	-11.3807
▁unluck	-11.3808
▁fairies	-11.3808
▁publication	-11.3809
▁thurs	-11.3809
▁hounds	-11.3809
▁splash	-11.3811
▁placid	-11.3813
▁cash	-11.3814
▁inhabited	-11.3815
▁furiously	-11.3816
▁scratch	-11.3817
▁benevolent	-11.3818
b	-11.3822
▁eve	-11.3823
▁indulged	-11.3826
▁politely	-11.3828
▁odor	-11.3828
▁tightly	-11.3828
▁pia	-11.383
▁flam	-11.3831
▁castles	-11.3832
gen	-11.3839
▁imposing	-11.384
▁fright	-11.3847
▁cheerfully	-11.385
ado	-11.3853
▁trooper	-11.3856
▁void	-11.3859
▁tur	-11.386
▁immensely	-11.3862
▁adorn	-11.3863
▁rul	-11.3867
▁buccaneers	-11.3878
▁creed	-11.3879
▁ornaments	-11.388
▁simpsons	-11.3889
▁stretches	-11.3892
▁whispering	-11.3899
▁kneel	-11.39
fold	-11.3901
▁grapes	-11.3907
▁fragran	-11.3912
▁dispose	-11.3921
▁ropes	-11.3926
▁reckoning	-11.3929
▁attacks	-11.3931
▁denis	-11.394
▁clearer	-11.394
▁divers	-11.3944
▁coach	-11.3953
▁twins	-11.3954
▁subdue	-11.3955
▁insolenc	-11.3956
▁arrows	-11.3957
hold	-11.3958
▁ascent	-11.3963
▁attendants	-11.3967
used	-11.3968
▁foresee	-11.3973
▁pat	-11.3975
▁childish	-11.3978
▁characteristics	-11.398
▁hospitalit	-11.398
▁strew	-11.3981
▁doubled	-11.3982
ans	-11.3991
▁presume	-11.4004
▁systematic	-11.4006
▁slay	-11.4022
▁snug	-11.4025
▁reduc	-11.4027
▁lick	-11.4032
hood	-11.4037
tally	-11.4038
▁strand	-11.404
▁bounds	-11.4042
▁vanish	-11.4046
▁reviv	-11.4047
▁gestures	-11.4056
▁mound	-11.4058
▁worker	-11.4064
▁operations	-11.4067
▁commit	-11.4086
▁plates	-11.409
▁honorabl	-11.4099
▁tact	-11.4102
▁gunn	-11.4107
hin	-11.4112
▁sped	-11.4125
▁accidental	-11.4136
▁battles	-11.4167
▁en	-11.4199
▁giants	-11.42
▁respected	-11.4203
▁bottles	-11.4215
▁tanner	-11.4219
▁vent	-11.4227
▁flitt	-11.4227
▁alms	-11.4233
▁cheers	-11.4234
▁slate	-11.4235
▁amids	-11.4236
▁undress	-11.4238
▁qua	-11.4243
▁des	-11.4245
▁satin	-11.4248
▁advis	-11.425
▁alm	-11.4253
▁witt	-11.4258
▁torch	-11.4259
▁milit	-11.426
▁mil	-11.4265
▁hosts	-11.4267
▁non	-11.427
▁web	-11.4296
▁impose	-11.4301
▁knel	-11.4301
▁sew	-11.4308
▁wel	-11.431
▁travers	-11.4311
▁internal	-11.432
▁improve	-11.4343
▁eccentric	-11.4345
▁muffle	-11.435
▁effected	-11.4365
▁pane	-11.4371
▁emerg	-11.4372
▁describ	-11.4381
▁strok	-11.4399
▁caravan	-11.441
▁tangle	-11.4413
▁sorrows	-11.4427
▁grumble	-11.4428
▁chant	-11.4441
▁assassin	-11.4449
▁declar	-11.4452
arling	-11.446
▁investigation	-11.4462
▁wigwam	-11.4463
▁precaution	-11.4464
▁plantation	-11.4464
▁philosopher	-11.4464
▁canyon	-11.4465
▁garment	-11.4468
▁production	-11.447
▁vegetati	-11.447
▁assyrian	-11.4478
time	-11.4481
rested	-11.449
▁sphere	-11.4497
▁whistl	-11.4511
ological	-11.452
▁educat	-11.4521
▁pension	-11.4524
▁promote	-11.4526
▁discontent	-11.4527
▁ruler	-11.4535
▁transfer	-11.4539
▁clums	-11.4547
▁stag	-11.4548
▁complaint	-11.4554
▁beckon	-11.4555
▁tempt	-11.4557
▁magnificen	-11.4557
ative	-11.4558
▁scold	-11.4563
▁shin	-11.4565
▁appreciate	-11.4576
▁insolent	-11.4577
▁mechanical	-11.458
▁traitor	-11.4585
▁nu	-11.4589
we	-11.4589
▁scandal	-11.459
▁vigil	-11.4593
▁sanch	-11.4594
▁rusk	-11.4596
▁screech	-11.4598
▁deprive	-11.4602
▁ginger	-11.4602
▁gaunt	-11.4604
sychotherapeutic	-11.4604
▁boulevard	-11.4604
▁conscientious	-11.4604
▁coonskin	-11.4604
▁damascus	-11.4604
▁disastrous	-11.4604
▁ecclesiastic	-11.4604
▁fundamental	-11.4604
▁fundevogel	-11.4604
▁orpheus	-11.4604
▁phenomenon	-11.4604
▁plasmoid	-11.4604
▁roylake	-11.4604
▁ruffian	-11.4604
▁scoundrel	-11.4604
▁significance	-11.4604
▁telegram	-11.4604
▁belvane	-11.4604
▁coffin	-11.4604
▁divorce	-11.4604
▁eyebrows	-11.4604
▁grammar	-11.4604
▁solomon	-11.4604
▁persuasion	-11.4604
▁rainbow	-11.4604
▁splendour	-11.4604
▁tragic	-11.4604
▁wondrous	-11.4604
▁disdain	-11.4604
▁innocence	-11.4604
▁tranquillity	-11.4605
▁submission	-11.4605
▁loneliness	-11.4605
▁stealthily	-11.4605
▁liquor	-11.4605
▁correspondence	-11.4605
▁brigham	-11.4605
▁imprisonment	-11.4605
▁cultivation	-11.4605
▁breeches	-11.4605
▁dagger	-11.4605
▁resignation	-11.4605
▁faculty	-11.4605
burton	-11.4605
▁distribution	-11.4605
▁longbill	-11.4605
▁eames	-11.4606
▁corruption	-11.4606
▁plough	-11.4606
▁riddle	-11.4606
▁beauties	-11.4606
▁unearth	-11.4606
▁empress	-11.4606
▁loveliness	-11.4608
▁congregation	-11.4608
▁fiend	-11.4608
▁bodily	-11.4608
▁slumber	-11.4608
▁medium	-11.4608
▁resultant	-11.4608
▁turf	-11.4608
▁huddl	-11.4609
▁yoke	-11.4609
▁potatoes	-11.461
▁postman	-11.461
▁lawton	-11.461
▁senor	-11.461
▁requisite	-11.461
▁transform	-11.4611
▁freight	-11.4611
▁humiliation	-11.4612
▁inflict	-11.4612
▁archway	-11.4612
▁opera	-11.4613
▁stripp	-11.4613
▁aloft	-11.4613
▁patriot	-11.4614
▁ecstasy	-11.4614
▁infection	-11.4614
▁unlocked	-11.4615
▁thoris	-11.4615
▁collector	-11.4616
ius	-11.4616
▁chairman	-11.4616
▁compass	-11.4616
▁wallet	-11.4617
▁financial	-11.4617
▁fascination	-11.4617
▁inspiration	-11.4617
▁loch	-11.4618
▁exclusive	-11.4618
▁gub	-11.4618
▁perceptibl	-11.4619
▁shawl	-11.4619
▁mouthful	-11.4619
▁farley	-11.4621
▁del	-11.4621
▁afflicted	-11.4622
▁noisy	-11.4622
▁manhood	-11.4623
▁tension	-11.4623
▁chattering	-11.4624
▁eyelids	-11.4624
▁churchill	-11.4624
▁muttering	-11.4625
▁acute	-11.4625
▁fathom	-11.4626
▁enchantment	-11.4626
▁mont	-11.4626
▁prolonged	-11.4626
▁banished	-11.4627
▁anita	-11.463
▁contemplate	-11.463
▁insufficient	-11.4631
▁bucket	-11.4631
▁cresty	-11.4632
▁habitable	-11.4633
▁quivering	-11.4634
▁frontier	-11.4634
▁exaggerated	-11.4636
▁abbey	-11.4637
▁fits	-11.4638
▁twentyman	-11.4638
▁convenience	-11.4639
▁frankness	-11.464
▁audible	-11.4642
▁reluctant	-11.4643
▁confidently	-11.4643
▁col	-11.4644
▁habitation	-11.4644
che	-11.4647
▁corresponding	-11.4648
▁frowned	-11.4648
▁disgraceful	-11.4648
▁proclaimed	-11.4648
mpelled	-11.4649
▁sketch	-11.4652
▁radian	-11.4654
▁motions	-11.4654
▁scrambled	-11.4655
▁returns	-11.4657
▁appreciated	-11.4659
▁withdrawn	-11.466
▁text	-11.4662
▁usage	-11.4663
▁devoured	-11.4663
▁brillianc	-11.4664
▁breadth	-11.4665
▁hu	-11.4666
▁vicious	-11.4671
▁fulfilled	-11.4672
ely	-11.4672
▁scare	-11.4674
▁stam	-11.4675
▁awaken	-11.4678
▁gracefully	-11.4678
▁nut	-11.4678
▁selected	-11.468
▁gripp	-11.4682
▁lamented	-11.4683
▁fiddle	-11.4685
▁chum	-11.4692
▁involve	-11.4694
▁spaniards	-11.4697
▁peering	-11.4698
▁hardness	-11.4699
▁butler	-11.4699
▁tackle	-11.47
▁sympathi	-11.47
comb	-11.4701
▁tailor	-11.4701
▁oneself	-11.4703
▁nervously	-11.4706
▁alban	-11.4707
▁insects	-11.4707
▁cruelly	-11.4709
▁shatter	-11.4709
▁span	-11.471
▁woe	-11.4711
▁excellence	-11.4712
▁bishop	-11.472
▁energi	-11.472
▁scar	-11.4724
▁whim	-11.4731
▁delawares	-11.4733
▁interpose	-11.4744
▁smoothly	-11.4745
▁flora	-11.4746
▁symbol	-11.475
▁gust	-11.4752
lac	-11.4756
▁broom	-11.4765
▁blindly	-11.4768
▁supplie	-11.4773
▁curls	-11.4777
laid	-11.4778
▁riders	-11.478
▁discourag	-11.478
▁anna	-11.4782
loren	-11.4783
▁dictate	-11.4785
▁futil	-11.4787
▁colours	-11.479
▁deceit	-11.4792
▁vines	-11.4806
▁phi	-11.4806
eels	-11.4808
▁allusion	-11.4818
▁federa	-11.4823
▁poles	-11.483
▁passive	-11.4834
clara	-11.4841
▁carriages	-11.4843
▁indistinct	-11.4844
▁sobs	-11.4852
▁wan	-11.4853
▁pall	-11.4857
▁products	-11.4858
▁hats	-11.4859
▁eel	-11.4862
▁divert	-11.4864
referred	-11.4865
▁boom	-11.4867
▁holidays	-11.4868
▁stare	-11.4875
▁slant	-11.4883
▁channels	-11.4892
▁publish	-11.4903
▁debts	-11.4907
▁yorke	-11.4908
▁maker	-11.4915
▁suppli	-11.4922
▁bump	-11.4923
mered	-11.4923
▁y	-11.4925
▁evenings	-11.4933
▁seeds	-11.4941
strained	-11.495
con	-11.4951
▁legg	-11.4955
▁fainted	-11.496
▁fu	-11.4964
▁precede	-11.4967
▁cocke	-11.4971
▁musing	-11.4971
▁arbitrar	-11.4974
▁im	-11.4978
▁blinded	-11.498
▁bury	-11.4991
oke	-11.4991
▁measured	-11.4998
▁maidens	-11.501
▁firs	-11.5017
you	-11.5023
▁rust	-11.5028
▁growl	-11.5031
▁rustl	-11.5049
pouring	-11.5056
▁rocking	-11.506
▁thump	-11.5062
▁fantastic	-11.5066
▁tut	-11.5068
are	-11.5076
▁str	-11.5079
ga	-11.508
▁trudg	-11.5092
▁reins	-11.5092
▁gem	-11.5096
▁token	-11.5098
▁frantic	-11.5105
▁proceeds	-11.5118
▁tire	-11.512
ighty	-11.5122
▁combin	-11.5125
▁detest	-11.5132
▁daint	-11.5133
▁slop	-11.5146
▁commanders	-11.5146
ot	-11.5151
cuous	-11.5154
▁cooper	-11.5154
▁divin	-11.5157
▁rod	-11.5162
ming	-11.5165
▁tonight	-11.5168
▁luxuri	-11.5178
▁padd	-11.518
▁toast	-11.5186
erial	-11.5186
ena	-11.519
▁wick	-11.5192
ock	-11.5192
nald	-11.5196
▁appro	-11.5199
▁poetic	-11.5201
een	-11.5213
▁raw	-11.5215
▁continues	-11.5217
▁shabb	-11.5219
▁rout	-11.5222
▁assign	-11.5222
▁mix	-11.5228
▁puff	-11.5231
shire	-11.5231
sing	-11.5239
longed	-11.5242
bread	-11.5253
▁lighter	-11.5255
▁limb	-11.5279
▁indefinite	-11.528
▁straighten	-11.5288
▁glar	-11.53
▁roam	-11.5301
▁owners	-11.5303
▁carey	-11.5304
lighted	-11.5311
ess	-11.5312
▁tame	-11.5315
▁kingdoms	-11.5316
▁dame	-11.5323
ghast	-11.5326
▁pint	-11.5331
▁accusation	-11.5347
▁receipt	-11.5347
▁refreshment	-11.5348
ei	-11.5348
▁acceptance	-11.5352
▁worlds	-11.5358
▁glee	-11.536
▁comic	-11.5364
▁suffice	-11.5368
▁pretence	-11.5369
▁ticket	-11.5369
iers	-11.5372
▁delaware	-11.5374
▁simpson	-11.5375
▁wh	-11.5375
▁surge	-11.5379
▁preacher	-11.5379
▁blanket	-11.5379
▁denie	-11.5383
▁shaft	-11.5383
▁expire	-11.539
▁plank	-11.54
▁languages	-11.5401
▁nerve	-11.5402
hed	-11.5403
▁coloss	-11.5413
course	-11.542
▁thro	-11.5421
▁decks	-11.5421
▁mills	-11.5423
▁feat	-11.5427
ca	-11.5432
▁claw	-11.5435
▁wilt	-11.5436
▁mystic	-11.5437
▁shan	-11.5437
▁wrap	-11.5438
wixt	-11.544
▁economic	-11.5443
▁jaw	-11.5445
▁husk	-11.5448
▁louis	-11.5448
▁beau	-11.545
▁enlighten	-11.5453
▁unjust	-11.5457
▁sustain	-11.5459
▁expresse	-11.5459
▁trot	-11.546
▁paddle	-11.5464
▁pulle	-11.5471
▁uses	-11.5471
race	-11.5472
▁cough	-11.5472
▁nigh	-11.5475
▁compose	-11.5482
▁corps	-11.5487
▁marine	-11.5487
▁habitual	-11.5488
▁cuba	-11.5492
ggy	-11.5504
▁abolition	-11.5505
▁extort	-11.5506
▁gr	-11.5507
▁relic	-11.5507
▁errant	-11.5511
▁pilgrim	-11.5512
▁mistakes	-11.5513
▁embroider	-11.5513
▁mathematic	-11.5513
▁benjamin	-11.5513
▁brownrigg	-11.5513
▁bullfrog	-11.5513
▁ceremonies	-11.5513
▁economy	-11.5513
▁eloquence	-11.5513
▁fauchelevent	-11.5513
▁gettysburg	-11.5513
▁insurgent	-11.5513
▁ludicrous	-11.5513
▁maleagans	-11.5513
▁moliere	-11.5513
▁moustache	-11.5513
▁preliminar	-11.5513
▁segouin	-11.5513
▁stackpole	-11.5513
▁steventon	-11.5513
▁twelfth	-11.5513
▁volunteer	-11.5513
▁cabbage	-11.5513
▁invasion	-11.5513
▁kinraid	-11.5513
▁blausser	-11.5513
▁cripple	-11.5513
▁rheumatism	-11.5513
▁irwine	-11.5513
▁barodia	-11.5513
▁luncheon	-11.5514
▁privacy	-11.5514
▁distemper	-11.5514
▁massachusetts	-11.5514
▁revenue	-11.5514
▁remsen	-11.5514
▁maturity	-11.5514
▁taboo	-11.5514
▁discomfort	-11.5514
▁perspiration	-11.5514
▁secrecy	-11.5514
▁benefactor	-11.5514
▁circulation	-11.5514
▁henceforth	-11.5514
▁communities	-11.5514
▁impossibility	-11.5514
▁hovel	-11.5514
▁museum	-11.5514
▁haynes	-11.5514
▁mockery	-11.5514
▁melody	-11.5514
▁northanger	-11.5514
▁loyalty	-11.5514
▁winchester	-11.5514
▁entrust	-11.5515
▁pilgrimage	-11.5515
▁affliction	-11.5515
▁refinement	-11.5515
▁francisco	-11.5515
▁rubbish	-11.5515
▁warfare	-11.5515
▁procureur	-11.5515
▁lava	-11.5515
▁fluid	-11.5515
▁hornby	-11.5516
▁vicar	-11.5516
▁appalling	-11.5516
▁circuit	-11.5516
▁jackson	-11.5516
▁vacation	-11.5516
▁gangway	-11.5516
▁brutality	-11.5517
▁disappearance	-11.5517
▁inquiring	-11.5517
▁commotion	-11.5517
▁malice	-11.5517
▁bliss	-11.5517
▁faltered	-11.5518
▁jungle	-11.5518
▁clover	-11.5519
▁aversion	-11.5519
▁protestant	-11.5519
▁clown	-11.552
▁concealment	-11.552
▁elegance	-11.5521
▁illustration	-11.5521
▁helmet	-11.5521
▁converse	-11.5523
▁politeness	-11.5523
▁schoolfellow	-11.5523
▁excellency	-11.5526
▁knave	-11.5526
▁conqueror	-11.5526
▁prudent	-11.5527
▁reparation	-11.5527
▁alteration	-11.5527
▁discreet	-11.5527
▁interpretation	-11.5528
▁frenchman	-11.5528
▁incline	-11.5529
▁snail	-11.553
▁shapeless	-11.553
▁lustre	-11.553
▁bicycle	-11.553
▁treachery	-11.5531
▁despatch	-11.5532
▁displeased	-11.5532
▁signify	-11.5533
▁clair	-11.5534
▁headlong	-11.5534
▁distorted	-11.5535
▁obedient	-11.5535
▁menacing	-11.5535
▁hillside	-11.5535
▁linger	-11.5536
▁exalt	-11.5536
▁terrors	-11.5538
▁frock	-11.5539
▁clothe	-11.5539
▁dishes	-11.5539
▁imprisoned	-11.5539
▁probabilit	-11.554
▁unnatural	-11.5541
▁dancers	-11.5541
▁flickering	-11.5541
▁mechanically	-11.5542
▁apprehend	-11.5545
▁lina	-11.5546
▁slippers	-11.5546
▁rhymes	-11.5548
▁penetrating	-11.5548
▁lump	-11.5551
▁contributed	-11.5555
▁bob	-11.5555
▁persistent	-11.5555
▁loom	-11.5556
▁abject	-11.5556
▁snappe	-11.5556
pensive	-11.5557
▁aisle	-11.5558
▁gower	-11.5558
▁forcibl	-11.5559
▁wright	-11.556
▁crouched	-11.5561
▁alien	-11.5561
▁fugitives	-11.5561
▁overend	-11.5563
▁inspiring	-11.5563
▁impressive	-11.5564
munition	-11.5567
▁ornamented	-11.5569
▁constructed	-11.5569
▁vile	-11.557
▁keenly	-11.5572
▁encouraging	-11.5575
▁combatants	-11.5575
▁snarl	-11.5575
▁lyre	-11.5577
▁fitting	-11.5577
▁exploit	-11.5578
▁dripp	-11.5579
▁bat	-11.5581
▁critics	-11.5582
reaching	-11.5583
▁intolerable	-11.5584
▁yawn	-11.5585
▁scott	-11.5585
▁ashore	-11.5589
▁willows	-11.5595
▁cultivated	-11.5595
▁hypnotist	-11.5595
▁hinted	-11.5595
▁intensely	-11.5598
▁despised	-11.5599
▁expressive	-11.56
▁tanks	-11.56
▁disliked	-11.56
▁cordially	-11.5615
▁hover	-11.5615
▁tract	-11.5623
▁feeding	-11.5628
▁cares	-11.5628
▁ascribed	-11.563
▁punished	-11.5637
▁rugged	-11.5638
▁hoss	-11.5643
▁voluntary	-11.5645
▁justify	-11.5647
▁customers	-11.565
▁receiver	-11.5651
▁printer	-11.5652
▁antoni	-11.5653
▁blankets	-11.5655
▁skirmish	-11.5655
▁foam	-11.5658
▁sealed	-11.566
▁respective	-11.5661
▁attributes	-11.5662
▁educate	-11.5663
▁pug	-11.5664
hur	-11.5665
▁echoes	-11.5666
▁glowed	-11.5668
signs	-11.5674
checked	-11.5675
angled	-11.5683
▁shameful	-11.5684
▁willard	-11.5687
▁physically	-11.5691
▁gild	-11.57
▁tenderly	-11.5701
▁undulat	-11.5702
▁corrected	-11.5706
▁extinct	-11.5707
▁talks	-11.5707
▁dej	-11.5709
erson	-11.5711
ea	-11.5714
▁expend	-11.5715
▁mantle	-11.5724
▁despairing	-11.5726
sight	-11.5734
▁gull	-11.5734
▁stunn	-11.575
▁logical	-11.5761
▁discovering	-11.5768
▁speculat	-11.5769
▁inability	-11.5774
▁acquire	-11.5775
▁proposals	-11.5776
▁overhear	-11.5776
junction	-11.5781
▁classic	-11.5782
▁rando	-11.5788
fred	-11.579
▁wink	-11.579
▁worthless	-11.5791
▁profits	-11.5792
▁humiliat	-11.5796
▁drawers	-11.5797
▁jol	-11.5799
almon	-11.5801
▁asia	-11.5803
▁qui	-11.5803
▁din	-11.5809
▁corpses	-11.5822
mposed	-11.5827
▁patche	-11.5828
▁tyrann	-11.5829
acity	-11.5837
▁fren	-11.5838
arius	-11.5839
▁embodi	-11.5843
▁cherr	-11.5845
▁errors	-11.5848
▁shirts	-11.5849
▁expenses	-11.5853
lled	-11.5863
▁wail	-11.5866
▁dip	-11.587
pping	-11.5871
▁groves	-11.5871
voluntary	-11.5876
▁wagons	-11.5876
▁loan	-11.5877
▁shrugg	-11.5884
▁aga	-11.5888
▁hoop	-11.589
▁pett	-11.5895
ag	-11.5899
▁sur	-11.59
▁gu	-11.5909
lworth	-11.5912
▁ash	-11.5914
▁bathe	-11.5914
▁engagements	-11.5924
▁wildly	-11.5927
▁tempered	-11.5932
▁frisk	-11.5946
court	-11.5949
▁merits	-11.5964
mont	-11.5964
itude	-11.5967
▁stru	-11.5969
▁sheets	-11.597
▁needless	-11.597
▁gorge	-11.5976
▁stain	-11.5986
▁pl	-11.5992
▁praises	-11.5993
▁awhile	-11.5994
▁rushe	-11.6
ge	-11.6001
llow	-11.6006
▁fred	-11.6006
▁declin	-11.6006
▁aft	-11.601
▁deliberate	-11.6018
▁bristl	-11.6025
▁drain	-11.6033
nwood	-11.6034
▁sighs	-11.6036
▁prostrate	-11.604
tory	-11.6043
▁irritat	-11.6045
au	-11.6048
▁jost	-11.6067
▁gre	-11.6072
▁trials	-11.6074
▁visions	-11.6076
▁washing	-11.6081
its	-11.6092
attered	-11.6104
▁bower	-11.6114
▁chi	-11.6115
▁proportions	-11.6137
▁revive	-11.6137
uel	-11.6142
▁heal	-11.6152
▁compel	-11.6153
▁crowns	-11.6162
▁bags	-11.6164
▁tim	-11.6172
terdam	-11.6177
▁penny	-11.6181
ison	-11.6191
▁offend	-11.6193
▁wag	-11.6197
ds	-11.6211
occupied	-11.6213
▁quieted	-11.6226
▁elaborate	-11.6228
▁commence	-11.6228
▁bin	-11.6231
ld	-11.6235
▁consum	-11.6238
port	-11.6244
▁compromise	-11.6249
national	-11.6254
▁calculat	-11.6258
▁brim	-11.6262
▁rational	-11.6265
▁tro	-11.6266
▁radi	-11.6268
mid	-11.6272
▁subdu	-11.6276
▁pierc	-11.6286
▁ape	-11.6291
▁gravitati	-11.6293
▁apologi	-11.6297
▁messages	-11.6309
▁appearances	-11.6312
▁lid	-11.6315
▁impos	-11.6321
▁physic	-11.6323
▁reverse	-11.6325
understood	-11.6327
chi	-11.633
▁playful	-11.633
▁starve	-11.6331
▁ornament	-11.6332
came	-11.6333
di	-11.6334
ament	-11.6337
▁cruise	-11.6339
▁morgeson	-11.6346
▁rim	-11.635
▁bac	-11.6359
▁designate	-11.6363
▁emphasi	-11.6363
▁pigeon	-11.6364
▁spruce	-11.6364
▁apparition	-11.6367
liness	-11.6368
▁cartridge	-11.637
▁senior	-11.6373
▁buccaneer	-11.6374
▁specimen	-11.6375
▁speculation	-11.6376
minous	-11.6377
▁depress	-11.6382
▁glid	-11.6387
▁contemplat	-11.6404
▁attribut	-11.6404
▁interpret	-11.6405
erland	-11.6405
▁inland	-11.6406
▁sample	-11.6406
▁acquiesce	-11.6407
▁elevat	-11.6408
▁customer	-11.6409
▁grieve	-11.6414
ins	-11.6429
ol	-11.643
wash	-11.644
▁frown	-11.6443
▁illustri	-11.6443
sh	-11.6444
▁architectur	-11.6462
▁exhibit	-11.6467
rosy	-11.6469
iety	-11.6471
▁pluto	-11.6472
▁cre	-11.6475
▁contribute	-11.6478
▁devote	-11.6481
▁mischievous	-11.6484
▁confidential	-11.6484
▁indignant	-11.6488
▁oppose	-11.6496
▁fasten	-11.6497
fulness	-11.6498
▁congratulate	-11.6499
ache	-11.65
▁fare	-11.6505
▁freed	-11.6508
▁reckless	-11.651
▁split	-11.6512
▁adequate	-11.6513
▁benedetto	-11.6513
▁cavalier	-11.6513
▁ceylon	-11.6513
▁clancharlie	-11.6513
▁colyumist	-11.6513
▁connexion	-11.6513
▁crevasse	-11.6513
▁engross	-11.6513
▁gertrude	-11.6513
▁gilbert	-11.6513
▁hurricane	-11.6513
▁impenetrab	-11.6513
▁license	-11.6513
▁miraculous	-11.6513
▁phaeton	-11.6513
▁philadelphia	-11.6513
▁shevardino	-11.6513
▁superstition	-11.6513
▁throckmorton	-11.6513
▁umbrella	-11.6513
▁fossil	-11.6513
▁peevish	-11.6513
▁sultan	-11.6513
▁sybil	-11.6513
▁daubeny	-11.6513
▁dinsmore	-11.6513
▁memoir	-11.6513
▁tavern	-11.6513
▁tenaya	-11.6513
▁ayrton	-11.6513
▁teresa	-11.6513
▁carpenter	-11.6513
▁proclamation	-11.6513
▁jessica	-11.6513
▁aristocracy	-11.6514
▁plausibl	-11.6514
▁chateau	-11.6514
▁gayety	-11.6514
▁emancipation	-11.6514
▁intoxication	-11.6514
▁prosperous	-11.6514
▁regime	-11.6514
▁dissatisfied	-11.6514
▁prodigious	-11.6514
▁vanka	-11.6514
▁ingenuity	-11.6514
▁wharf	-11.6514
▁consumption	-11.6514
▁sunbeam	-11.6514
▁girdle	-11.6514
▁colonists	-11.6514
▁concession	-11.6514
▁humility	-11.6514
▁recital	-11.6514
▁prevalen	-11.6514
▁enclosure	-11.6514
▁deference	-11.6514
▁inheritance	-11.6514
▁handwriting	-11.6514
▁forefinger	-11.6514
▁lynne	-11.6514
▁austen	-11.6514
▁research	-11.6514
▁garter	-11.6514
▁currant	-11.6514
▁riverboro	-11.6514
▁eternity	-11.6515
▁jerome	-11.6515
▁pensionary	-11.6515
▁voluntarily	-11.6515
▁swoon	-11.6515
▁improper	-11.6515
▁rosebreast	-11.6515
▁clergyman	-11.6515
▁exaltation	-11.6515
▁desolation	-11.6515
ads	-11.6515
▁egotis	-11.6515
▁alaska	-11.6515
▁simian	-11.6515
▁eugenie	-11.6515
▁sidewalk	-11.6515
▁dishonest	-11.6515
▁kitty	-11.6515
▁courtyard	-11.6515
▁convulsive	-11.6515
▁robinson	-11.6516
▁pulpit	-11.6516
▁hypothesis	-11.6516
▁sweetheart	-11.6516
▁teeter	-11.6516
▁reasonably	-11.6516
▁morley	-11.6516
▁suicide	-11.6517
▁los	-11.6517
▁guardsmen	-11.6517
▁secrets	-11.6517
▁godmother	-11.6517
▁necklace	-11.6517
▁fishermen	-11.6517
▁arteries	-11.6517
▁greece	-11.6518
▁radical	-11.6518
▁woodhouse	-11.6518
▁offense	-11.6518
▁announcement	-11.6518
▁discord	-11.6518
▁judicious	-11.6518
▁unbounded	-11.6518
▁barley	-11.6518
▁dairy	-11.6518
▁arriving	-11.6519
▁menstruation	-11.652
▁prelude	-11.652
▁implored	-11.652
chord	-11.652
▁salad	-11.652
▁forbid	-11.6521
▁alternately	-11.6521
▁variation	-11.6522
▁superiority	-11.6522
▁fisheries	-11.6522
▁partisan	-11.6522
▁escaping	-11.6522
▁psychologist	-11.6522
▁plaster	-11.6523
▁indulgence	-11.6523
▁royalty	-11.6523
▁spacious	-11.6523
▁saxon	-11.6524
▁weymouth	-11.6524
▁inspection	-11.6524
▁sturd	-11.6525
▁donkey	-11.6525
▁gorgeous	-11.6526
▁conversing	-11.6527
▁earnestness	-11.6528
▁subsided	-11.6529
▁evolution	-11.6529
▁emigrant	-11.653
▁package	-11.653
▁shepherdess	-11.653
▁observance	-11.653
▁scanty	-11.653
toole	-11.6531
▁cottagers	-11.6533
▁mould	-11.6534
▁behavior	-11.6534
▁incessantly	-11.6534
▁efficiency	-11.6534
▁isolated	-11.6534
▁humorous	-11.6535
▁boundary	-11.6535
▁ni	-11.6536
▁bedside	-11.6536
▁bracelets	-11.6537
▁prescribed	-11.6537
▁latent	-11.6537
▁adder	-11.6538
▁dismount	-11.654
▁separat	-11.654
▁lemon	-11.6542
▁bach	-11.6542
▁popularity	-11.6544
evelt	-11.6544
▁seventeenth	-11.6544
▁stitch	-11.6545
▁twitched	-11.6546
▁specific	-11.6546
▁dimple	-11.6547
▁consistent	-11.6549
▁blond	-11.655
▁biograph	-11.655
▁fulfill	-11.6552
▁referee	-11.6552
▁provoked	-11.6552
▁rita	-11.6555
▁croak	-11.6556
▁astonishing	-11.6556
▁toller	-11.6559
▁footing	-11.656
▁relish	-11.6561
▁accost	-11.6563
▁offensive	-11.6564
▁resigned	-11.6565
▁sharks	-11.6567
▁overboard	-11.6567
▁augusta	-11.6567
▁fain	-11.6574
▁exceeding	-11.6575
▁ridicule	-11.6577
▁utility	-11.6577
▁waterfall	-11.6579
▁elms	-11.658
▁ignored	-11.658
▁morn	-11.6585
night	-11.6586
▁embark	-11.6587
▁div	-11.6591
▁hans	-11.6591
▁lurk	-11.6592
▁wearily	-11.6592
▁rap	-11.6594
▁correspond	-11.6595
▁picketing	-11.6596
▁interpreted	-11.6601
▁crumbs	-11.6604
▁afresh	-11.6605
▁conventional	-11.6608
▁cope	-11.6608
▁alex	-11.6615
▁interfered	-11.6615
▁funds	-11.6616
▁thrilling	-11.6623
▁restraint	-11.6625
▁politicians	-11.6626
▁swelling	-11.6629
▁indies	-11.6632
▁proffer	-11.6632
▁investigate	-11.6634
▁curtains	-11.6635
▁luc	-11.6637
▁poem	-11.6638
allow	-11.6639
▁runnin	-11.6641
▁stiffly	-11.6641
▁actors	-11.6642
▁bully	-11.6642
▁gait	-11.6643
▁sparks	-11.6649
▁termed	-11.6652
▁striped	-11.6654
▁adders	-11.6661
icott	-11.6671
▁coolly	-11.6675
▁chat	-11.6681
▁praised	-11.6682
▁reverent	-11.6686
▁aristocrat	-11.6686
fallen	-11.6689
▁gill	-11.6693
▁abid	-11.6705
▁expos	-11.6709
▁site	-11.6712
▁grudge	-11.6717
▁rector	-11.6719
▁overwhelming	-11.672
▁mason	-11.6724
per	-11.6727
▁opponents	-11.6731
▁engines	-11.6731
▁relat	-11.6736
▁honesty	-11.6748
▁nap	-11.6751
▁performer	-11.6751
om	-11.6754
▁implie	-11.6758
▁portraits	-11.6759
ise	-11.6769
▁dresse	-11.6769
▁pang	-11.677
▁beggars	-11.6771
▁talents	-11.678
▁attribute	-11.678
▁crumbl	-11.6784
▁contend	-11.6785
▁whisk	-11.6802
▁elbows	-11.6805
▁pistols	-11.6812
▁monks	-11.6815
▁fram	-11.682
▁schemes	-11.682
▁oaths	-11.6823
▁situations	-11.6825
▁recorded	-11.6825
▁regi	-11.683
▁murderers	-11.6831
▁nod	-11.6834
▁buckle	-11.6837
ft	-11.6838
▁fringe	-11.6845
▁veiled	-11.6845
▁lust	-11.6846
racing	-11.6852
▁session	-11.6853
▁matched	-11.6857
heard	-11.6869
▁mourn	-11.6881
▁harden	-11.6891
▁literal	-11.6893
▁fla	-11.6893
▁moods	-11.6897
utting	-11.6897
▁muse	-11.6899
do	-11.6903
armed	-11.6907
▁rouse	-11.6915
lamour	-11.6916
room	-11.693
▁avenge	-11.693
▁criminals	-11.6936
▁conceptions	-11.6953
▁popul	-11.6956
▁expectations	-11.6956
numer	-11.6961
▁quantit	-11.6963
▁kenn	-11.6963
▁howling	-11.6965
▁hire	-11.6966
os	-11.6987
▁shove	-11.6994
▁dangl	-11.7007
ished	-11.7012
protected	-11.7012
ough	-11.7017
ngloss	-11.7025
ering	-11.7027
▁deput	-11.7033
▁indicat	-11.7038
▁pala	-11.7039
▁va	-11.7042
▁cop	-11.7044
▁silks	-11.7047
▁instincts	-11.7048
▁constrain	-11.7048
▁ranch	-11.7048
▁tempera	-11.7051
ars	-11.7055
ro	-11.7056
▁drum	-11.7058
▁sleepy	-11.7058
▁juic	-11.7063
hanged	-11.7065
▁convent	-11.7068
▁suck	-11.7069
▁cal	-11.7076
▁chick	-11.7076
▁tinge	-11.7086
berry	-11.709
▁truthful	-11.7093
▁degrad	-11.7101
▁rug	-11.7102
▁lett	-11.7107
▁dean	-11.7113
▁likeness	-11.7116
ances	-11.7131
▁marking	-11.7133
▁fier	-11.7134
ucked	-11.7138
▁mer	-11.715
▁ros	-11.7154
▁envelop	-11.7157
oon	-11.7158
ngs	-11.7158
▁victori	-11.716
▁dock	-11.7163
▁graft	-11.7165
▁scotch	-11.717
▁speck	-11.7174
▁marshal	-11.7176
▁woode	-11.7184
li	-11.7193
▁virtu	-11.7193
▁idol	-11.7198
▁undo	-11.7202
▁outrage	-11.7205
▁carve	-11.7209
▁harmon	-11.721
▁dome	-11.7228
▁furs	-11.7232
lessness	-11.7238
▁temples	-11.7241
say	-11.7242
si	-11.7244
ings	-11.7248
va	-11.7249
▁distances	-11.725
▁wand	-11.7252
▁comforting	-11.7254
▁overtake	-11.7255
▁sands	-11.7261
▁sche	-11.7267
rows	-11.7267
urely	-11.727
▁whe	-11.7272
▁courts	-11.7274
lings	-11.728
▁inde	-11.7283
tial	-11.7286
▁prettie	-11.7289
▁assail	-11.7293
▁reel	-11.7294
▁wove	-11.73
▁associat	-11.7303
▁patients	-11.7306
▁odds	-11.7311
lling	-11.7315
▁pop	-11.7328
▁stat	-11.7329
▁nome	-11.7329
▁conspi	-11.7331
genial	-11.7331
▁cr	-11.7331
resented	-11.7342
▁risks	-11.7355
▁tar	-11.7355
standing	-11.7362
limited	-11.7362
▁saints	-11.7365
▁injuri	-11.737
▁heights	-11.7375
▁backed	-11.7376
▁console	-11.7377
▁shades	-11.738
▁cod	-11.7381
▁bows	-11.7392
▁cher	-11.7408
otic	-11.7412
▁pie	-11.7427
▁sculpture	-11.7432
▁pins	-11.7436
specially	-11.7441
▁determin	-11.7443
ating	-11.7446
▁garrison	-11.7456
▁bureau	-11.7456
▁belly	-11.7462
▁rattl	-11.7466
▁clap	-11.7468
▁floors	-11.7468
lle	-11.7473
▁costume	-11.7473
▁dragoon	-11.7476
▁bookst	-11.7478
▁perception	-11.7481
▁cedar	-11.7482
▁occurrence	-11.7482
▁area	-11.7482
▁caprice	-11.7486
▁resource	-11.7486
▁blossom	-11.7486
ruj	-11.7487
▁insect	-11.7487
▁institution	-11.7488
▁festivit	-11.749
▁meek	-11.7503
▁pillar	-11.7503
bo	-11.7504
▁misunderstand	-11.751
▁blunder	-11.7515
nut	-11.7515
io	-11.7522
▁curtain	-11.7534
▁advances	-11.7535
▁mock	-11.7536
▁prices	-11.7538
immer	-11.7539
▁attach	-11.7542
▁ledge	-11.7543
▁gal	-11.7555
vy	-11.7558
▁retir	-11.7559
▁trader	-11.756
▁disappoint	-11.7561
▁condemn	-11.7566
▁crouch	-11.7567
▁confound	-11.7568
lian	-11.7568
▁proclaim	-11.7584
▁gang	-11.7585
▁celebrate	-11.7593
▁bead	-11.7597
▁abrupt	-11.7599
▁cautious	-11.7599
▁dir	-11.76
▁ultimate	-11.7603
▁assyria	-11.7604
▁trait	-11.7605
▁resume	-11.7608
▁announce	-11.7608
▁advent	-11.7615
▁roos	-11.7616
▁duel	-11.7618
▁grab	-11.7618
▁execute	-11.762
▁expose	-11.762
▁chariot	-11.7625
▁ambiguous	-11.7625
▁aramaean	-11.7625
▁barbaik	-11.7625
▁carmody	-11.7625
▁cauldron	-11.7625
▁cheltenham	-11.7625
▁colchis	-11.7625
▁jeddak	-11.7625
▁macmurdo	-11.7625
▁masculin	-11.7625
▁mechanism	-11.7625
▁mediterranean	-11.7625
▁milburgh	-11.7625
▁mortification	-11.7625
▁murphy	-11.7625
▁mutineers	-11.7625
▁narwhale	-11.7625
▁ocumpaugh	-11.7625
▁pamphlet	-11.7625
▁stirrup	-11.7625
▁superficial	-11.7625
▁vigour	-11.7625
▁westminster	-11.7625
▁yosemite	-11.7625
▁audacity	-11.7625
▁hymn	-11.7625
▁miniature	-11.7625
▁recruit	-11.7625
▁tadpole	-11.7625
▁steadfast	-11.7625
▁attila	-11.7625
▁hudson	-11.7625
▁peyton	-11.7625
▁phillips	-11.7625
▁raymond	-11.7625
▁tilbury	-11.7625
▁farragut	-11.7625
▁remorse	-11.7625
▁convoy	-11.7625
▁scotia	-11.7625
▁valiant	-11.7625
▁jersey	-11.7625
▁fastidious	-11.7625
▁happiest	-11.7625
▁integrity	-11.7625
▁pewee	-11.7625
▁cambridge	-11.7625
▁forlorn	-11.7625
▁parrot	-11.7625
▁cheshire	-11.7625
▁chorus	-11.7625
▁forfeit	-11.7625
▁isaac	-11.7625
▁discrimination	-11.7625
▁adroit	-11.7625
▁steamboat	-11.7625
▁inquisitive	-11.7625
▁recreation	-11.7625
▁orchestra	-11.7625
▁nourishment	-11.7625
▁tablespoonful	-11.7625
▁collision	-11.7625
▁merriment	-11.7625
eppelin	-11.7625
▁amendment	-11.7625
▁captivity	-11.7625
▁rosalind	-11.7625
▁strife	-11.7625
▁theatrical	-11.7625
▁exposition	-11.7625
▁mantelish	-11.7625
▁communion	-11.7625
▁ebon	-11.7625
▁goddess	-11.7625
▁contemporaries	-11.7625
▁toilet	-11.7625
▁contrivance	-11.7625
▁pear	-11.7626
so	-11.7626
▁gallows	-11.7626
▁dejection	-11.7626
▁uncommon	-11.7626
▁annoyance	-11.7626
▁diameter	-11.7626
▁construction	-11.7626
▁impostor	-11.7626
▁notorious	-11.7626
▁burial	-11.7627
▁storeroom	-11.7627
▁ravine	-11.7627
▁evergreen	-11.7627
▁sylvie	-11.7627
▁distaste	-11.7627
▁righteousness	-11.7627
▁birthday	-11.7627
▁crisp	-11.7627
▁supernatural	-11.7628
▁vista	-11.7628
▁trivial	-11.7628
▁contemplation	-11.7628
▁demolish	-11.7628
▁westward	-11.7628
▁persecution	-11.7628
▁ransom	-11.7628
▁shakespeare	-11.7628
▁engaging	-11.7628
▁alternative	-11.7628
▁farmhouse	-11.7629
▁whiskey	-11.7629
▁yale	-11.7629
▁trenches	-11.7629
▁fireplace	-11.7629
▁ardor	-11.7629
▁responsibilit	-11.7629
▁katy	-11.7629
▁overcoat	-11.7629
▁anticipation	-11.7629
▁sanction	-11.763
▁latch	-11.763
▁draught	-11.763
▁wistful	-11.763
▁grandma	-11.763
▁stupor	-11.763
▁efficac	-11.763
▁correspondent	-11.7631
▁nightfall	-11.7632
▁knives	-11.7632
▁hingham	-11.7632
▁chieftain	-11.7632
▁overpower	-11.7633
▁thyself	-11.7633
▁lowder	-11.7633
▁susan	-11.7634
▁inherit	-11.7634
▁preparat	-11.7634
▁reverend	-11.7634
▁eminence	-11.7634
▁realities	-11.7635
▁idleness	-11.7636
▁diversion	-11.7636
▁stateroom	-11.7636
▁regulation	-11.7636
▁chasm	-11.7636
▁incredulous	-11.7636
▁christianity	-11.7637
▁accumulation	-11.7637
▁fortify	-11.7637
▁caresses	-11.7637
▁plump	-11.7638
▁sunrise	-11.7638
▁maskers	-11.7639
▁vigilan	-11.764
▁suppression	-11.7641
▁governess	-11.7641
▁disfigured	-11.7642
▁columb	-11.7642
▁agreement	-11.7642
erable	-11.7642
▁omitted	-11.7644
▁intimation	-11.7644
▁subscribe	-11.7644
▁hostess	-11.7644
▁fortified	-11.7646
▁mingle	-11.7646
▁infancy	-11.7647
▁injure	-11.7647
▁barren	-11.7647
▁recommendation	-11.7648
▁meekly	-11.7649
▁goodwood	-11.765
▁selection	-11.765
▁pathetic	-11.7651
▁possessor	-11.7651
▁concentrated	-11.7652
ac	-11.7652
▁hammer	-11.7653
ample	-11.7654
▁footman	-11.7654
▁slab	-11.7655
▁rites	-11.7655
▁hereafter	-11.7656
▁decid	-11.7657
▁habitually	-11.7659
▁rumor	-11.766
▁odin	-11.7662
▁baffled	-11.7664
▁hysterical	-11.7665
▁protestation	-11.7667
▁grievances	-11.7668
▁attentively	-11.7669
▁kay	-11.7671
▁shaving	-11.7673
▁winked	-11.7674
▁relatively	-11.7676
▁operat	-11.7678
▁hor	-11.768
▁enduring	-11.768
uce	-11.7681
▁brigand	-11.7681
▁suburbs	-11.7684
▁conversed	-11.7685
▁horde	-11.7686
▁brandy	-11.7686
▁actor	-11.7691
▁ram	-11.7692
▁paw	-11.7692
▁urging	-11.7694
eyed	-11.7696
▁gil	-11.7698
riam	-11.7699
▁losses	-11.7699
▁daddy	-11.77
▁disadvantages	-11.7701
▁fra	-11.7703
ow	-11.7706
▁predict	-11.7706
▁lee	-11.7707
▁disgraced	-11.7711
▁bartle	-11.7712
▁buff	-11.7715
▁successive	-11.7716
▁clearness	-11.7717
▁scriptures	-11.7718
▁bandits	-11.7719
▁stall	-11.7726
▁modes	-11.7729
▁cramp	-11.7729
▁doubtfully	-11.773
sir	-11.7732
▁swit	-11.7732
▁teasing	-11.7733
▁loosen	-11.7735
▁crushing	-11.7736
▁surpassed	-11.7739
▁frail	-11.774
▁ascertained	-11.774
▁players	-11.7741
▁solve	-11.7743
can	-11.7744
▁digger	-11.7744
▁diet	-11.7746
▁pitied	-11.7746
▁terrifi	-11.7748
▁watche	-11.7749
▁click	-11.775
▁spray	-11.775
▁strengthen	-11.7753
▁threats	-11.7758
misunderstanding	-11.7759
▁creat	-11.776
ach	-11.7762
▁valve	-11.7763
▁obstruct	-11.7763
▁comply	-11.7763
▁utili	-11.7765
▁bowel	-11.7768
▁similarly	-11.7776
▁whistled	-11.7778
▁anklet	-11.7778
▁reassure	-11.778
▁warmer	-11.7781
▁fund	-11.7784
▁seniors	-11.7784
▁uplift	-11.7785
▁conquered	-11.7786
▁conform	-11.7787
▁replace	-11.779
▁hereditar	-11.7793
jou	-11.7794
▁legislati	-11.7796
▁sara	-11.7797
▁invade	-11.7798
▁tolerate	-11.7805
▁gear	-11.7808
▁overthrow	-11.7812
▁precautions	-11.7818
▁sauc	-11.7822
▁mor	-11.7823
▁haul	-11.7823
▁fists	-11.7831
▁youngster	-11.7833
▁inert	-11.7834
▁pi	-11.7835
▁sighing	-11.7836
▁magical	-11.7838
cha	-11.7839
▁flashes	-11.7839
ancy	-11.7843
▁tra	-11.7843
ricate	-11.7847
▁lodgings	-11.7852
▁shadowy	-11.7854
▁insulting	-11.7861
▁distrust	-11.7866
▁irony	-11.7868
mmed	-11.7874
▁phil	-11.7876
▁locke	-11.7878
tive	-11.7887
▁dose	-11.7889
▁shrunk	-11.789
▁ve	-11.7891
▁distribute	-11.7892
▁thre	-11.7896
▁sou	-11.7897
▁speckle	-11.7898
▁lea	-11.7907
▁sports	-11.7908
tresses	-11.7909
ometer	-11.7914
ja	-11.7918
▁peculiarit	-11.7925
▁repairs	-11.7925
▁angles	-11.7936
oxy	-11.7942
▁pigs	-11.7943
▁venera	-11.7943
▁agitate	-11.7946
▁pious	-11.7949
▁rebuild	-11.7949
ashed	-11.7955
▁milly	-11.796
▁reproachful	-11.796
▁necks	-11.7962
▁gidd	-11.7962
▁prowl	-11.7969
▁litter	-11.7972
▁bragg	-11.7973
onnois	-11.7978
▁mow	-11.7979
▁oftener	-11.7979
ites	-11.798
apped	-11.7992
▁masts	-11.7994
fected	-11.7996
▁shun	-11.7997
▁nick	-11.7999
inherited	-11.8002
▁pail	-11.8004
▁comp	-11.801
▁stabb	-11.8017
▁scales	-11.8017
▁drill	-11.8018
rum	-11.802
bility	-11.8022
▁dill	-11.8026
quitted	-11.8033
▁fable	-11.8039
▁alexandr	-11.804
int	-11.8056
▁watchful	-11.8057
▁clerks	-11.807
▁barns	-11.8072
ace	-11.8077
▁imply	-11.808
▁pursuits	-11.8084
▁rowed	-11.8105
▁sc	-11.8107
▁trott	-11.8114
▁poorer	-11.8119
▁procur	-11.8123
▁admiralt	-11.8125
▁balanc	-11.8128
▁alight	-11.8135
▁prospects	-11.8137
▁illustrate	-11.8143
ved	-11.8144
▁furnishe	-11.8148
v	-11.8155
verse	-11.8156
▁summits	-11.8163
▁lovelie	-11.8164
▁graces	-11.8167
tical	-11.8169
ably	-11.8169
▁carbon	-11.8171
▁insure	-11.8174
▁hen	-11.8175
▁boarding	-11.8181
aded	-11.8186
▁ripen	-11.8191
▁sown	-11.8194
▁carli	-11.8203
aked	-11.8206
▁purchas	-11.8209
ye	-11.8218
tutor	-11.8218
▁enabl	-11.8222
ncy	-11.8224
▁cavit	-11.8226
mission	-11.8233
▁reside	-11.8239
▁camel	-11.8248
▁lakes	-11.8256
ards	-11.8263
▁miner	-11.8269
▁plume	-11.8273
▁bass	-11.8275
▁rig	-11.828
▁rack	-11.8296
▁georgi	-11.8296
▁onwards	-11.8298
▁nook	-11.83
▁usher	-11.8324
rice	-11.833
▁ming	-11.8338
ments	-11.8345
▁strikes	-11.8353
▁tal	-11.8356
▁dinners	-11.836
ined	-11.8365
opher	-11.8367
▁dough	-11.8367
ole	-11.8368
rawle	-11.838
▁pac	-11.8382
odious	-11.8386
▁secondly	-11.8386
▁savor	-11.8389
▁dealer	-11.8389
ire	-11.8396
▁frolic	-11.8399
▁dares	-11.8401
▁bella	-11.8407
▁impetu	-11.8409
▁effectual	-11.841
▁amber	-11.841
▁hue	-11.842
▁cro	-11.8421
tability	-11.8423
▁invad	-11.8432
▁tint	-11.8439
held	-11.8449
las	-11.8458
ite	-11.8461
▁humbl	-11.848
▁dron	-11.8484
aid	-11.8485
▁decorat	-11.8488
tail	-11.8504
▁tha	-11.8505
float	-11.8508
nor	-11.8508
▁adj	-11.8513
▁dealt	-11.8515
acting	-11.852
break	-11.8529
▁reconcile	-11.8536
liest	-11.854
▁argo	-11.8545
▁ter	-11.8546
▁governments	-11.8552
▁dar	-11.8553
ome	-11.8553
▁circl	-11.8557
▁gains	-11.8561
uspicious	-11.8566
▁pretti	-11.8566
▁cu	-11.8572
▁stages	-11.8573
ka	-11.8575
▁lame	-11.858
scrupulous	-11.8588
▁apollo	-11.86
bury	-11.8606
▁ripple	-11.8632
▁hearth	-11.8632
▁hardy	-11.8635
ches	-11.8638
▁kha	-11.8641
▁bee	-11.8652
resting	-11.8658
▁nurser	-11.8668
▁baile	-11.8678
aps	-11.8678
itch	-11.8681
issue	-11.8681
▁redd	-11.8682
▁sage	-11.8682
▁easie	-11.8686
▁persist	-11.869
▁sharpen	-11.869
▁bras	-11.8696
▁acquisition	-11.8705
▁mat	-11.8706
▁apprentice	-11.8707
▁commonplace	-11.8707
▁fissure	-11.8719
▁intrigue	-11.8724
▁omni	-11.8727
▁contradiction	-11.8728
▁cushion	-11.873
▁monument	-11.8731
▁inconvenience	-11.8732
ges	-11.8733
▁politician	-11.8734
▁spaniard	-11.8735
▁robert	-11.8735
▁musketeer	-11.8736
▁obligation	-11.8741
▁antagonist	-11.8742
▁fee	-11.8744
▁scamp	-11.8744
▁pebble	-11.8745
▁handy	-11.8745
▁meals	-11.875
▁pleases	-11.8753
▁severit	-11.8754
ave	-11.8757
▁labors	-11.876
▁realise	-11.8761
anna	-11.8763
rene	-11.8767
▁clergy	-11.8768
aves	-11.8769
ians	-11.8774
stres	-11.8779
bus	-11.8783
▁quiver	-11.8788
keeper	-11.879
▁cluck	-11.8792
▁league	-11.8793
▁yea	-11.8796
▁courti	-11.8797
▁slide	-11.8798
▁assum	-11.8798
▁indulge	-11.88
▁martyr	-11.8802
▁fragment	-11.8808
▁scrambl	-11.881
▁annoy	-11.8819
▁massacre	-11.8827
▁choos	-11.8832
ven	-11.8832
▁goat	-11.8832
▁renew	-11.8834
▁mono	-11.884
▁construct	-11.8842
▁aggressive	-11.8843
print	-11.8843
▁decisive	-11.8846
▁technical	-11.8847
▁grievous	-11.8847
▁sufferer	-11.8848
▁incessant	-11.8848
aming	-11.885
▁treacher	-11.8851
val	-11.8851
disposed	-11.8859
▁muni	-11.8861
▁mature	-11.8862
▁rejoin	-11.8862
▁roast	-11.8864
▁beli	-11.8864
adjusted	-11.8866
▁imaginations	-11.8867
▁abstract	-11.8869
▁stumble	-11.8872
▁harmonious	-11.8872
▁dreamer	-11.8873
▁sarcastic	-11.8873
▁ostrog	-11.8874
cipal	-11.8875
arnault	-11.8875
▁cassandra	-11.8875
▁collingwood	-11.8875
▁confederate	-11.8875
▁consternation	-11.8875
▁cudgel	-11.8875
▁deluge	-11.8875
▁deryck	-11.8875
▁dialogue	-11.8875
▁dilemma	-11.8875
▁earthquake	-11.8875
▁edifice	-11.8875
▁equilibrium	-11.8875
▁equivalen	-11.8875
▁imperceptibl	-11.8875
▁imprudent	-11.8875
▁inverashiel	-11.8875
▁luscinda	-11.8875
▁metaphor	-11.8875
▁obstinacy	-11.8875
▁oklahoma	-11.8875
▁provincial	-11.8875
▁seyffert	-11.8875
▁theologian	-11.8875
▁transparent	-11.8875
▁yoritomo	-11.8875
▁diminuti	-11.8875
▁pantaloon	-11.8875
▁photoplay	-11.8875
▁tribunal	-11.8875
▁tyrker	-11.8875
▁unavoidabl	-11.8875
▁wardrobe	-11.8875
▁daniel	-11.8875
▁dimensions	-11.8875
▁scrutin	-11.8875
▁controversy	-11.8875
▁dungeon	-11.8875
▁gospel	-11.8875
▁sheridan	-11.8875
▁laurel	-11.8875
▁composure	-11.8875
▁vinegar	-11.8875
▁component	-11.8875
▁oriole	-11.8875
▁surrey	-11.8875
▁bayonet	-11.8875
▁enmity	-11.8875
▁ministry	-11.8875
▁crosbie	-11.8875
▁whitlock	-11.8875
▁eloquent	-11.8875
▁reuben	-11.8875
▁feebly	-11.8875
▁hoskins	-11.8875
▁carnival	-11.8875
▁exposure	-11.8875
▁fullerton	-11.8875
▁blount	-11.8875
▁instantaneous	-11.8875
▁subscription	-11.8875
▁unavailing	-11.8875
▁kettle	-11.8875
▁warehouse	-11.8875
▁tennis	-11.8875
▁unaffected	-11.8875
▁latitude	-11.8875
▁beatrice	-11.8875
▁fayle	-11.8875
▁emerald	-11.8875
▁prowess	-11.8875
▁goblet	-11.8875
▁lagree	-11.8875
▁strata	-11.8875
▁repetition	-11.8875
▁intelligibl	-11.8875
▁capron	-11.8875
▁necessities	-11.8875
▁depict	-11.8875
▁obscurity	-11.8875
▁sprung	-11.8876
▁choir	-11.8876
▁markham	-11.8876
▁deception	-11.8876
▁uneasily	-11.8876
▁thieves	-11.8876
▁heroism	-11.8876
▁buggy	-11.8876
▁degradation	-11.8876
▁salary	-11.8876
▁profile	-11.8876
▁overshadow	-11.8876
▁convincing	-11.8876
▁midday	-11.8877
▁chivalry	-11.8877
▁organism	-11.8878
▁petersburg	-11.8878
▁varnish	-11.8878
▁highbury	-11.8878
▁negotiation	-11.8878
▁prohibition	-11.8878
▁irishman	-11.8878
▁guardsman	-11.8879
▁foreboding	-11.8879
▁sleigh	-11.8879
▁straggl	-11.888
▁anomal	-11.888
▁attendance	-11.888
▁singleton	-11.888
▁creator	-11.888
▁consultation	-11.8881
▁cowboy	-11.8881
▁unceasing	-11.8881
▁drench	-11.8881
▁mecca	-11.8881
▁expanse	-11.8882
▁remedies	-11.8882
▁disperse	-11.8882
▁balcony	-11.8883
▁matrimony	-11.8883
▁clamour	-11.8883
▁conferred	-11.8883
▁infirm	-11.8883
▁locality	-11.8883
▁thief	-11.8883
▁mutilated	-11.8884
▁depot	-11.8884
▁briar	-11.8884
▁jeweller	-11.8886
und	-11.8887
▁envied	-11.8887
▁progressive	-11.8887
▁ordeal	-11.8887
ith	-11.8887
▁illegal	-11.8888
▁pitiless	-11.8888
▁balmy	-11.8888
▁ungrateful	-11.8888
▁eject	-11.8888
▁luxuriant	-11.8889
▁orator	-11.8889
▁terrifying	-11.8889
▁ruskin	-11.8889
▁destination	-11.8889
▁dreamily	-11.889
▁dependence	-11.889
▁yarn	-11.8891
▁complaisan	-11.8891
▁pork	-11.8891
▁agriculture	-11.8891
▁scalp	-11.8891
▁slacken	-11.8892
addin	-11.8892
▁salon	-11.8893
▁recesses	-11.8893
▁reenter	-11.8893
▁mantel	-11.8893
▁heiress	-11.8894
▁deceased	-11.8894
▁tilda	-11.8895
▁hahn	-11.8895
▁transaction	-11.8896
▁drooping	-11.8896
▁susceptib	-11.8896
▁garb	-11.8896
▁wickedness	-11.8897
▁winner	-11.8897
▁skies	-11.8898
▁scrawl	-11.8898
▁descendant	-11.8898
▁multiply	-11.8899
▁infirmit	-11.8899
▁congratulation	-11.89
▁hermann	-11.89
▁throb	-11.8902
▁scorched	-11.8902
▁forgiveness	-11.8903
▁sooth	-11.8905
▁bitterness	-11.8906
▁psalm	-11.8906
▁unmistakabl	-11.8908
▁unnoticed	-11.891
▁histories	-11.891
▁shrine	-11.891
▁advertised	-11.8911
▁savour	-11.8911
▁spoon	-11.8911
▁spo	-11.8912
▁crab	-11.8912
▁breach	-11.8913
▁frivol	-11.8914
▁smack	-11.8916
▁bravery	-11.8917
▁ripp	-11.8919
▁yearning	-11.892
▁flattery	-11.8923
▁judicia	-11.8923
▁brightened	-11.8923
▁parishes	-11.8923
▁playmates	-11.8924
▁wholesome	-11.8925
neous	-11.8926
▁impartial	-11.8926
pecuni	-11.8927
▁beseeching	-11.8929
▁bearers	-11.8929
▁facilit	-11.8929
▁industri	-11.893
▁frowning	-11.893
▁roasted	-11.893
▁dispersed	-11.8936
▁impudent	-11.8938
▁bunk	-11.894
▁frosty	-11.8941
▁dominions	-11.8942
▁favorably	-11.8944
▁explored	-11.8945
▁bribe	-11.8946
▁swaying	-11.8946
fitch	-11.8947
▁eastward	-11.8948
▁candy	-11.8949
trepid	-11.8951
▁peacefully	-11.8952
▁chilly	-11.8952
▁flourishing	-11.8955
▁promoted	-11.8957
▁spaces	-11.8957
ti	-11.8961
▁moisten	-11.8962
▁witnesse	-11.8962
▁manifestations	-11.8963
▁trumpets	-11.8963
▁unselfish	-11.8965
▁neutral	-11.8966
▁wisting	-11.8971
▁deprived	-11.8971
▁disclose	-11.8974
▁morals	-11.8976
▁horribly	-11.8981
▁ribbons	-11.8981
▁discretion	-11.8983
▁shuddered	-11.8984
▁invest	-11.8986
▁tempting	-11.8987
▁subjective	-11.8987
▁hermit	-11.8987
mothered	-11.8989
ero	-11.8999
▁spar	-11.8999
▁publican	-11.8999
▁myriads	-11.9
▁sour	-11.9
▁successes	-11.9
▁actua	-11.9001
rne	-11.9003
▁licked	-11.9004
▁vest	-11.9006
▁jug	-11.9006
▁successor	-11.9009
▁ordinar	-11.901
▁camps	-11.9011
▁jem	-11.9011
tible	-11.9012
▁nimble	-11.9017
lets	-11.9018
▁repaired	-11.9019
▁pinion	-11.902
▁obligations	-11.902
▁whirled	-11.9021
▁earning	-11.9022
aved	-11.9025
▁sch	-11.9026
▁meeks	-11.9029
▁whimsical	-11.9033
edric	-11.9034
▁hospitabl	-11.9036
▁sincerity	-11.9037
▁sanctu	-11.9037
roy	-11.9038
▁hearken	-11.904
▁diverse	-11.9041
▁assented	-11.9042
▁erie	-11.9043
▁crude	-11.9045
▁quote	-11.9046
▁inspect	-11.9051
▁adviser	-11.9052
▁ravish	-11.9057
posture	-11.9059
ctic	-11.9059
▁potter	-11.906
▁shafts	-11.9063
▁cynic	-11.9065
▁congratulat	-11.907
▁corny	-11.907
▁courageous	-11.9073
▁indiana	-11.9074
▁spoilt	-11.9079
▁sect	-11.9081
▁worms	-11.9082
▁shrieking	-11.9085
▁miser	-11.9089
▁galler	-11.9089
▁needles	-11.9091
▁philosophers	-11.9095
▁wigwams	-11.9095
▁soothe	-11.9096
▁plus	-11.9096
nds	-11.9108
ee	-11.9116
▁nibbl	-11.9124
▁deliberati	-11.9126
▁tray	-11.9127
cile	-11.9129
▁lime	-11.9137
hall	-11.9143
▁spears	-11.9148
▁dolly	-11.9148
▁possessions	-11.9149
spite	-11.9152
▁faction	-11.9153
▁achievements	-11.9153
▁ethic	-11.9154
▁flaw	-11.9156
▁issu	-11.9164
▁actress	-11.9168
▁gna	-11.9168
▁collie	-11.9169
▁mau	-11.917
▁drear	-11.9172
▁miracles	-11.9172
▁chimneys	-11.9172
not	-11.9179
never	-11.918
▁reconcil	-11.9187
▁ignore	-11.9187
▁leapt	-11.9192
▁herb	-11.9195
▁stupef	-11.9196
abel	-11.9198
▁socket	-11.9205
▁stumbl	-11.9205
▁urg	-11.9207
▁liar	-11.9209
▁performances	-11.9211
▁flogg	-11.9218
▁ferry	-11.9227
other	-11.9227
▁buttons	-11.9232
▁darn	-11.9238
▁compa	-11.9239
use	-11.9244
bidden	-11.9252
▁wires	-11.9252
▁farthe	-11.9255
▁chink	-11.926
▁clu	-11.9263
▁occupations	-11.9266
▁stup	-11.9271
acent	-11.9272
▁skirts	-11.9272
▁dover	-11.9276
▁coals	-11.9277
▁qu	-11.9281
▁novels	-11.9288
▁bout	-11.9297
for	-11.9303
▁sca	-11.9306
dia	-11.9307
▁rustle	-11.9308
▁longest	-11.9309
▁accents	-11.9317
▁pestilen	-11.9319
rising	-11.9322
over	-11.9324
▁aunts	-11.9326
▁penalt	-11.933
sought	-11.9336
▁delayed	-11.9345
la	-11.9346
definitely	-11.9357
human	-11.9373
▁snare	-11.9376
▁monter	-11.9385
▁cheat	-11.9385
versary	-11.9386
▁sab	-11.9389
▁bug	-11.9393
companies	-11.9399
idney	-11.941
▁thark	-11.9411
▁moonli	-11.9414
bad	-11.9414
ther	-11.9414
▁drumm	-11.9415
rified	-11.9417
apping	-11.9418
lin	-11.9421
▁glove	-11.9421
▁reli	-11.9426
mouth	-11.9427
▁antiqu	-11.9428
▁accommodate	-11.9431
come	-11.9432
▁tr	-11.9432
bray	-11.9434
▁diseases	-11.9441
house	-11.9443
▁translate	-11.9446
▁suspens	-11.9449
▁trampl	-11.9455
▁spark	-11.9456
▁roy	-11.946
▁comb	-11.9461
▁sweetly	-11.9461
hat	-11.9463
▁ac	-11.9466
▁doings	-11.9476
▁lanes	-11.9476
▁raged	-11.9483
▁respecting	-11.9487
nnae	-11.9487
▁waddl	-11.9488
▁muff	-11.9496
▁rebuke	-11.9497
▁truck	-11.9506
ingham	-11.9509
▁preservati	-11.9512
▁designs	-11.9513
▁journeys	-11.9516
▁bran	-11.9518
▁chatt	-11.9521
▁seals	-11.9526
▁anni	-11.9531
▁belonge	-11.9539
▁ev	-11.9543
▁nests	-11.9546
dical	-11.955
amed	-11.9551
▁arter	-11.9553
▁valor	-11.9562
▁chuckl	-11.9564
headed	-11.9567
▁conclusions	-11.9571
win	-11.9577
▁mates	-11.9586
▁toss	-11.9605
▁primar	-11.9624
▁cork	-11.9631
▁strap	-11.9635
wis	-11.9637
▁fil	-11.9643
▁starts	-11.9646
▁courses	-11.9648
▁believ	-11.9649
master	-11.9657
▁sever	-11.9658
verted	-11.9659
▁terr	-11.9668
ssing	-11.967
look	-11.9672
▁lamentabl	-11.9675
frere	-11.9677
▁presum	-11.968
▁terminat	-11.9688
▁manor	-11.97
▁stem	-11.971
▁sciences	-11.971
▁dashe	-11.971
▁spurt	-11.9715
bs	-11.9716
▁forecast	-11.9717
▁bas	-11.9721
▁fratern	-11.9736
▁collapse	-11.9758
▁disapprove	-11.9762
ain	-11.9765
▁brav	-11.9774
▁bustl	-11.9776
▁pears	-11.9777
gone	-11.9782
currence	-11.9786
▁hens	-11.9792
▁dictat	-11.9798
each	-11.9802
sensible	-11.9803
▁acquir	-11.9805
▁sash	-11.981
▁proofs	-11.9814
▁measur	-11.9816
art	-11.9818
▁chopp	-11.9819
istic	-11.9822
▁sentimental	-11.9824
▁dreamt	-11.9827
▁stops	-11.9831
▁cheque	-11.9832
▁clash	-11.9835
▁matche	-11.9842
▁livi	-11.9848
▁materialist	-11.9849
ake	-11.9856
▁emotional	-11.986
ublin	-11.9865
tch	-11.987
▁explanations	-11.9875
▁wanton	-11.9886
rely	-11.989
▁priv	-11.9893
▁lar	-11.9893
ceasing	-11.9896
▁mai	-11.9897
▁stocks	-11.9906
▁elders	-11.9906
▁fabric	-11.9907
▁quake	-11.991
dden	-11.9917
▁gettin	-11.992
thought	-11.9922
▁porc	-11.9926
▁eta	-11.9927
▁posts	-11.9932
des	-11.9934
▁psycholog	-11.9934
▁devise	-11.9937
lton	-11.995
▁tho	-11.9951
▁pictur	-11.9953
▁suffere	-11.9956
born	-11.9956
broken	-11.9958
▁cl	-11.9964
▁deriv	-11.9965
▁demonstrate	-11.9965
aring	-11.9971
▁gent	-11.9972
▁ode	-11.9976
▁insan	-11.9977
▁distribut	-11.9984
strial	-11.9987
ines	-11.9999
▁northwest	-12.0003
▁discourage	-12.0007
▁generals	-12.0014
joyed	-12.0015
mo	-12.0019
city	-12.0022
▁inhabit	-12.003
very	-12.0033
act	-12.0033
▁surviv	-12.0038
▁stimul	-12.004
times	-12.0056
strong	-12.0058
▁lash	-12.006
servation	-12.0063
▁cabins	-12.0064
llowing	-12.0066
▁strutt	-12.0069
▁sil	-12.0071
uro	-12.0071
▁stra	-12.008
▁neglecte	-12.0081
▁ham	-12.0095
▁flap	-12.0097
▁picks	-12.0112
▁threat	-12.0129
▁christiani	-12.013
▁grasshopper	-12.0132
▁athlete	-12.0147
▁cupboard	-12.0148
▁salutation	-12.0149
▁meditation	-12.0155
▁predecessor	-12.0156
▁patriarch	-12.0156
▁scruple	-12.0157
▁grandpa	-12.016
▁myriad	-12.0161
▁shar	-12.0161
▁fisc	-12.0162
luster	-12.0164
▁rumour	-12.0166
▁religions	-12.0168
▁domain	-12.0172
▁sicken	-12.0173
▁tripp	-12.0173
▁novelt	-12.018
▁plumb	-12.0182
▁terrifie	-12.0193
▁farthing	-12.0196
▁surround	-12.02
▁notable	-12.0202
▁seeker	-12.0204
▁explore	-12.0205
▁sl	-12.021
ency	-12.0214
▁profess	-12.0218
▁scant	-12.0219
▁tank	-12.0228
▁quart	-12.0239
▁confront	-12.0243
▁renown	-12.0244
▁resign	-12.0245
pathy	-12.0245
▁painter	-12.0248
▁confirm	-12.0249
▁curs	-12.0251
▁deceiv	-12.0252
unted	-12.0257
▁laborer	-12.0257
▁pastor	-12.0266
▁scowl	-12.0269
▁babylonia	-12.027
▁rot	-12.0271
▁chiefs	-12.0274
tention	-12.0275
▁meddle	-12.0275
▁contemptuous	-12.0276
▁defiant	-12.0277
▁achieve	-12.028
▁herald	-12.0282
▁ef	-12.0284
▁ejaculat	-12.0286
▁manufacture	-12.0289
▁brun	-12.0291
ration	-12.0291
ngaria	-12.0292
▁mattress	-12.0293
▁potato	-12.0294
bbed	-12.0298
▁brood	-12.0298
▁loyal	-12.03
▁elastic	-12.0301
▁betroth	-12.0303
▁brussels	-12.0303
▁cardenio	-12.0303
▁chaloner	-12.0303
▁chandelier	-12.0303
▁chechen	-12.0303
▁comprehensive	-12.0303
▁elmhurst	-12.0303
▁environment	-12.0303
▁equivocal	-12.0303
▁eskimo	-12.0303
▁esquemeling	-12.0303
▁extravagance	-12.0303
▁extravagant	-12.0303
▁grenville	-12.0303
▁grosbeak	-12.0303
▁gymnasium	-12.0303
▁harriet	-12.0303
▁hispaniola	-12.0303
▁inexplicable	-12.0303
▁mexican	-12.0303
▁niagara	-12.0303
▁pheasant	-12.0303
▁premium	-12.0303
▁pyramid	-12.0303
▁therapeutic	-12.0303
▁thermometer	-12.0303
▁thorndyke	-12.0303
▁utensils	-12.0303
▁abigail	-12.0303
▁argyle	-12.0303
▁dilapidat	-12.0303
▁jurisprudence	-12.0303
▁reenforce	-12.0303
▁strateg	-12.0303
▁messiah	-12.0303
▁relinquish	-12.0303
▁sibyl	-12.0303
▁sowerby	-12.0303
▁valjean	-12.0303
▁wraith	-12.0303
▁accuracy	-12.0303
▁carcass	-12.0303
▁derision	-12.0303
▁epithet	-12.0303
▁hurrah	-12.0303
▁acclamation	-12.0303
▁promontor	-12.0303
▁catalogue	-12.0303
▁teuton	-12.0303
▁parchment	-12.0303
▁rabble	-12.0303
▁restorative	-12.0303
▁volition	-12.0303
▁midsummer	-12.0303
▁stubborn	-12.0303
▁cicero	-12.0303
▁dissatisfaction	-12.0303
▁hanssen	-12.0303
▁perseverance	-12.0303
▁banana	-12.0303
▁turbulen	-12.0303
▁enacted	-12.0303
▁karp	-12.0303
▁luggage	-12.0303
▁maintenance	-12.0303
▁pioneer	-12.0303
▁humbug	-12.0303
▁regression	-12.0303
▁disinterested	-12.0303
▁nightingale	-12.0304
▁coincidence	-12.0304
▁tappan	-12.0304
▁defiance	-12.0304
▁estimation	-12.0304
▁judah	-12.0304
▁supplement	-12.0304
▁gruff	-12.0304
▁patriotic	-12.0304
▁grantline	-12.0304
▁contemptible	-12.0304
▁oblong	-12.0304
▁liberties	-12.0304
▁precarious	-12.0304
▁knighthood	-12.0304
▁belgian	-12.0304
▁moyne	-12.0304
▁compensation	-12.0304
▁bondage	-12.0304
▁cardboard	-12.0304
▁accomplice	-12.0304
▁friction	-12.0304
▁celesti	-12.0304
▁poplar	-12.0304
▁cinder	-12.0304
▁metropoli	-12.0304
▁impulsive	-12.0304
▁armchair	-12.0305
▁discouragement	-12.0305
▁footpath	-12.0305
▁barefoot	-12.0305
▁juris	-12.0305
▁spouse	-12.0305
▁blacksmith	-12.0305
▁acknowledgment	-12.0305
▁tau	-12.0305
▁celebration	-12.0305
▁billiard	-12.0305
▁chaff	-12.0306
▁twelvemonth	-12.0306
▁rigorous	-12.0306
▁knightley	-12.0306
▁blasi	-12.0306
▁consort	-12.0306
▁classification	-12.0306
▁bewilderment	-12.0306
▁promotion	-12.0306
▁redoubled	-12.0307
▁delusion	-12.0307
▁blouse	-12.0307
▁impertinent	-12.0307
▁sleek	-12.0307
▁untrue	-12.0307
▁extremities	-12.0307
▁sloane	-12.0307
▁uncertainty	-12.0308
▁aldermen	-12.0308
▁tourist	-12.0308
▁middling	-12.0308
▁unaccountable	-12.0308
▁clo	-12.0309
▁craving	-12.0309
▁pagan	-12.0309
▁gauge	-12.0309
▁treasury	-12.0309
▁wholesale	-12.0309
▁refusal	-12.0309
▁merciful	-12.0309
▁lackey	-12.031
▁incredul	-12.031
▁gentry	-12.031
▁identified	-12.031
▁snout	-12.031
▁aramis	-12.031
▁oriental	-12.031
▁timidity	-12.031
▁assemblage	-12.031
▁odour	-12.031
▁languor	-12.0312
▁sovereignty	-12.0312
▁absurdity	-12.0312
▁hinges	-12.0313
▁maryland	-12.0313
▁ponderous	-12.0313
▁masterpiece	-12.0313
▁advancement	-12.0313
▁exploded	-12.0313
▁sierra	-12.0314
▁advocate	-12.0314
▁harlow	-12.0315
▁immeasurable	-12.0315
▁vapor	-12.0316
▁unfold	-12.0317
▁housewife	-12.0317
▁preferment	-12.0317
▁abolitionist	-12.0317
▁becky	-12.0318
▁chronic	-12.0318
▁antony	-12.0318
▁micky	-12.0318
▁restriction	-12.0319
▁daybreak	-12.0319
▁deafening	-12.0319
▁fellowship	-12.0319
▁sosius	-12.0319
▁encamp	-12.0319
scue	-12.032
omaha	-12.032
▁orient	-12.0321
▁marion	-12.0321
orous	-12.0321
▁fortitude	-12.0322
▁virginal	-12.0322
▁hedgerow	-12.0322
▁jovial	-12.0323
▁whining	-12.0323
▁serv	-12.0323
▁hobbled	-12.0324
▁transact	-12.0324
▁senora	-12.0324
▁hatchet	-12.0324
▁unfriendly	-12.0324
▁fraud	-12.0324
▁golf	-12.0324
▁coil	-12.0325
▁cheerfulness	-12.0325
▁via	-12.0325
▁heathen	-12.0325
ired	-12.0326
▁clenched	-12.0326
▁bleed	-12.0327
▁austere	-12.0328
▁subordinate	-12.0328
▁selfishness	-12.0329
▁counteract	-12.0329
▁inconsistent	-12.0329
▁worshipped	-12.0329
▁compromising	-12.0331
▁patricia	-12.0331
▁incidentally	-12.0332
▁imperfection	-12.0333
▁marian	-12.0333
▁muffin	-12.0333
▁pursuers	-12.0334
▁revolver	-12.0335
▁ballast	-12.0336
▁asano	-12.034
▁hopeful	-12.0341
▁olive	-12.0342
▁illuminated	-12.0343
▁grandson	-12.0345
▁erro	-12.0345
▁recited	-12.0346
▁annex	-12.0346
▁longitud	-12.0346
▁flare	-12.0347
▁surpassing	-12.0348
entry	-12.0348
▁conde	-12.0348
▁manette	-12.0348
▁grumbling	-12.0349
▁processes	-12.035
▁loc	-12.0351
▁seriousness	-12.0352
▁grating	-12.0352
▁fiction	-12.0352
▁jogg	-12.0353
▁noises	-12.0353
▁scattering	-12.0354
▁brid	-12.0354
▁imaginable	-12.0354
▁chips	-12.0354
▁affectionately	-12.0356
▁sworn	-12.0357
▁lifetime	-12.0357
▁incomplete	-12.0357
▁booty	-12.0358
▁sorrowfully	-12.0358
▁foaming	-12.0358
▁perry	-12.0359
▁disabl	-12.036
▁breathlessly	-12.036
▁musicians	-12.0361
▁admirers	-12.0362
▁gro	-12.0363
▁renowned	-12.0364
▁veritabl	-12.0364
▁confronted	-12.0364
▁tete	-12.0365
▁tributar	-12.0366
▁turk	-12.0366
▁booming	-12.0366
▁broadway	-12.0369
▁dismally	-12.0369
igi	-12.0371
▁ink	-12.0371
▁allowance	-12.0371
▁ecstatic	-12.0371
▁vehement	-12.0372
▁dak	-12.0374
▁meditated	-12.0374
▁borrow	-12.0381
defended	-12.0381
▁daytime	-12.0381
▁crags	-12.0383
▁conclusive	-12.0383
▁archers	-12.0384
▁charitabl	-12.0389
▁joyously	-12.039
▁ward	-12.0391
▁beckoning	-12.0391
▁hoarsely	-12.0391
▁lingering	-12.0391
▁resident	-12.0391
▁paragraph	-12.0391
bor	-12.0392
▁buddh	-12.0392
▁disclosed	-12.0392
ltitude	-12.0392
▁berth	-12.0393
▁scolding	-12.0395
▁crosses	-12.0396
▁lineage	-12.0396
▁hesitatingly	-12.0396
▁gibbet	-12.0399
▁stings	-12.04
▁trib	-12.0401
▁abounded	-12.0401
▁lengthen	-12.0401
▁enlightened	-12.0402
▁moor	-12.0402
▁entangle	-12.0402
▁status	-12.0404
▁avowed	-12.0405
▁competiti	-12.0405
imation	-12.0406
▁fling	-12.0406
endous	-12.0407
▁abstain	-12.0408
lance	-12.0409
▁forearm	-12.041
▁preaching	-12.041
▁righteous	-12.0412
▁psychologi	-12.0414
him	-12.0416
▁pitcher	-12.0417
▁economical	-12.0418
▁refus	-12.0419
ermission	-12.042
▁separately	-12.0421
▁enjoin	-12.0425
▁mocking	-12.0426
▁taller	-12.0426
▁smot	-12.043
▁slamm	-12.043
▁denounc	-12.043
▁plucked	-12.0431
▁pasture	-12.0432
urn	-12.0433
▁composit	-12.0434
▁sava	-12.0434
mple	-12.0435
▁stowed	-12.0436
▁wilful	-12.0437
▁curved	-12.0438
bourn	-12.0441
▁redden	-12.0442
▁soaring	-12.0446
ged	-12.0446
▁hugh	-12.0448
▁levi	-12.0449
▁wailing	-12.0452
▁pleading	-12.0452
▁wager	-12.0452
▁repulse	-12.0453
▁treasurer	-12.0453
fall	-12.0455
▁chord	-12.0455
▁centipede	-12.0456
▁intrust	-12.0458
▁legend	-12.0466
▁rubber	-12.0467
▁kindled	-12.0471
▁monuments	-12.0471
▁laborers	-12.0471
amsel	-12.0476
▁rattler	-12.0478
▁char	-12.0481
▁vick	-12.0489
▁halting	-12.0489
▁enlarge	-12.0489
▁les	-12.0491
▁burnt	-12.0493
▁occurrences	-12.0493
nsisted	-12.0494
▁enchant	-12.0501
▁bake	-12.0501
▁hurl	-12.0501
forward	-12.0502
ten	-12.0511
▁cartridges	-12.0516
▁speculations	-12.0516
▁smit	-12.0517
▁drums	-12.0517
osity	-12.0518
▁swan	-12.0518
▁rations	-12.0518
▁principally	-12.0521
▁medica	-12.0526
▁pic	-12.0533
▁planks	-12.0536
▁adheren	-12.0539
▁stor	-12.054
▁unchang	-12.0541
▁decrease	-12.0541
▁indefinitely	-12.0543
▁banter	-12.0544
▁hatched	-12.0544
wered	-12.0548
rid	-12.055
▁wilder	-12.0552
▁hips	-12.0553
▁encourag	-12.0555
▁restrained	-12.0555
ural	-12.0556
▁adieu	-12.0556
▁dad	-12.0558
▁numbered	-12.056
▁assyrians	-12.056
▁investigations	-12.056
▁characteri	-12.0561
▁truths	-12.0563
formation	-12.0564
ttered	-12.0565
▁splendidly	-12.0567
▁sacks	-12.0569
▁maples	-12.0576
▁distill	-12.0579
▁focus	-12.0585
▁amend	-12.0586
▁laborious	-12.0587
▁inhuman	-12.0588
▁exit	-12.0589
▁commissioners	-12.0591
▁petitions	-12.0594
▁apiece	-12.06
▁listener	-12.0601
▁acre	-12.0605
▁bowe	-12.0609
arched	-12.0611
▁unclean	-12.0611
▁excitedly	-12.0613
perty	-12.0615
▁apes	-12.0616
▁cannons	-12.0617
istics	-12.0626
grea	-12.0626
▁complet	-12.0627
▁verse	-12.0631
▁models	-12.0632
▁violets	-12.0636
▁constitutional	-12.0638
▁feroci	-12.0638
▁fan	-12.0644
▁thickets	-12.0648
right	-12.0652
▁materially	-12.0652
▁tortures	-12.0654
▁mold	-12.0654
▁chok	-12.0656
wa	-12.0658
▁ste	-12.0662
▁graves	-12.0663
▁auto	-12.0664
▁consol	-12.0666
▁talke	-12.0677
▁comical	-12.0679
▁particle	-12.0683
▁hostilit	-12.0684
▁rumble	-12.0685
▁maria	-12.0688
▁smol	-12.0691
▁che	-12.07
hereupon	-12.07
▁sparkle	-12.0706
▁meets	-12.0707
▁repute	-12.0711
▁provid	-12.0713
enne	-12.0717
▁imitat	-12.0722
▁whipp	-12.0723
▁recognis	-12.0728
earned	-12.0734
nie	-12.075
▁shines	-12.0752
▁lucid	-12.0755
▁blend	-12.0755
ordan	-12.0756
▁ramble	-12.0757
▁rings	-12.0759
▁multiplic	-12.0768
▁caves	-12.0768
pression	-12.0771
▁vol	-12.0775
hams	-12.0785
▁rivals	-12.0791
▁valued	-12.0793
▁steed	-12.0805
khi	-12.0811
▁unkind	-12.0812
▁vari	-12.0812
▁allude	-12.0814
▁oppos	-12.0818
▁floods	-12.0819
▁fuller	-12.0821
▁chronicle	-12.0823
▁emb	-12.0841
inted	-12.0845
▁clam	-12.0847
▁pillows	-12.0849
▁pip	-12.085
▁compli	-12.0853
▁binn	-12.0854
▁authors	-12.0854
▁heading	-12.0862
▁op	-12.0864
▁loath	-12.0864
▁mudd	-12.0869
▁clocks	-12.087
▁raid	-12.0873
▁protests	-12.0876
▁infam	-12.0882
▁prophets	-12.0884
▁glide	-12.0891
▁fighter	-12.0891
▁alternat	-12.0896
quee	-12.0899
reen	-12.0903
▁bullets	-12.0913
▁kinder	-12.0922
nny	-12.0924
▁robes	-12.0924
▁bulg	-12.0926
▁sill	-12.0927
back	-12.0938
▁destitut	-12.0941
oldie	-12.0943
▁fork	-12.0946
▁norther	-12.0951
▁formula	-12.0953
▁teller	-12.0963
▁precipitate	-12.0964
▁ain	-12.0966
▁tusk	-12.097
▁afar	-12.0971
diction	-12.0975
▁disapprov	-12.0978
▁tow	-12.0982
▁flags	-12.0985
▁calib	-12.0987
▁welcom	-12.0991
▁candid	-12.0996
▁issues	-12.1014
▁chaste	-12.1014
lan	-12.1015
▁traps	-12.1016
▁launch	-12.1018
▁lung	-12.1024
▁evoke	-12.1029
cation	-12.1031
▁soot	-12.1032
tly	-12.1032
▁unk	-12.1037
▁detestabl	-12.104
▁handkerchiefs	-12.105
res	-12.1051
▁lawful	-12.1058
▁poly	-12.1064
oth	-12.1064
lew	-12.107
cian	-12.1073
dish	-12.1073
▁plait	-12.1075
▁noiseless	-12.1076
▁hav	-12.1076
▁compell	-12.1078
▁dates	-12.1084
▁plea	-12.1086
▁popp	-12.1088
▁candles	-12.1106
▁farming	-12.1108
▁brighten	-12.1109
▁install	-12.1116
▁fray	-12.1119
▁cups	-12.112
▁canop	-12.1122
▁ale	-12.1124
hera	-12.1125
▁pranc	-12.1128
▁revel	-12.1135
thing	-12.1136
▁por	-12.1151
ual	-12.1155
▁ken	-12.1158
▁strut	-12.1172
ided	-12.1174
▁monsters	-12.1178
▁gir	-12.118
▁blo	-12.1183
▁contriv	-12.1185
ption	-12.1191
▁heeded	-12.1197
away	-12.1209
▁cordials	-12.1211
earing	-12.1222
mori	-12.1228
▁adjust	-12.1242
▁cali	-12.1249
▁ban	-12.1252
fore	-12.1253
simo	-12.1266
low	-12.1268
▁heaving	-12.1271
piece	-12.1272
▁vesti	-12.1278
▁regrets	-12.1278
▁magn	-12.1298
▁sputter	-12.1308
▁bustle	-12.131
▁behav	-12.1314
▁stead	-12.1319
▁lass	-12.1325
hen	-12.1341
▁forgetful	-12.1344
▁favours	-12.1346
▁plow	-12.1351
han	-12.1364
▁presentation	-12.1365
▁palest	-12.1372
encies	-12.1374
▁joys	-12.1375
▁wriggle	-12.1378
▁glisten	-12.1394
▁potent	-12.14
oft	-12.1404
▁indulg	-12.1406
athed	-12.1407
ip	-12.1417
try	-12.1424
▁theater	-12.1426
happiness	-12.1427
stress	-12.1431
down	-12.1432
▁sundays	-12.1445
▁mitigate	-12.1446
▁baths	-12.1449
▁yon	-12.1451
ford	-12.1455
ina	-12.1456
▁tick	-12.1456
▁painte	-12.1457
wife	-12.1464
▁grate	-12.147
ore	-12.1476
▁emblem	-12.1477
▁homer	-12.1483
▁bubble	-12.1485
▁spin	-12.1487
▁inspir	-12.1488
rest	-12.1492
▁penetrat	-12.1495
▁natures	-12.1501
▁scholars	-12.1503
▁sledg	-12.1506
rapped	-12.1507
▁autom	-12.1521
▁atom	-12.1523
▁doll	-12.1528
▁exult	-12.153
▁revolv	-12.1532
als	-12.1535
▁criticise	-12.1536
wardly	-12.1545
▁camped	-12.1547
ttering	-12.1559
ker	-12.1565
action	-12.1571
▁hol	-12.1576
▁ame	-12.1577
▁tam	-12.1581
▁whol	-12.1586
▁pol	-12.1592
▁covers	-12.1596
long	-12.16
▁ignor	-12.1603
ub	-12.1608
▁sprinkle	-12.161
hill	-12.161
▁drea	-12.1614
▁carr	-12.1617
ckled	-12.1618
▁pierce	-12.1619
▁lyric	-12.1621
ular	-12.1622
ich	-12.1622
observed	-12.163
▁goin	-12.1632
▁tumbl	-12.1634
▁sensibl	-12.1636
welcome	-12.1636
fell	-12.1638
▁celi	-12.1651
▁diffuse	-12.1651
uttering	-12.1653
escent	-12.1657
▁pee	-12.1663
▁gut	-12.1663
▁reappear	-12.1665
groom	-12.1665
sle	-12.1667
▁heartless	-12.1668
pool	-12.167
▁translat	-12.167
score	-12.1673
powder	-12.1674
bridge	-12.1678
▁tu	-12.1682
acre	-12.1686
▁allud	-12.1693
▁rum	-12.1695
comprehensible	-12.1697
▁grade	-12.1699
flowers	-12.17
▁fri	-12.17
skirts	-12.1709
▁strive	-12.1713
▁arc	-12.172
stein	-12.1734
▁sen	-12.1737
▁amiss	-12.1744
ces	-12.1745
▁variet	-12.175
▁corns	-12.1752
▁enlarg	-12.1755
tful	-12.1759
▁introduc	-12.1762
wn	-12.179
▁seren	-12.1803
controll	-12.1803
lights	-12.1805
▁idiot	-12.1807
mir	-12.1807
nity	-12.1809
▁bough	-12.1812
orn	-12.1817
▁dilate	-12.1818
▁imagin	-12.182
precedent	-12.1822
▁sentinel	-12.1824
▁simpl	-12.1825
▁contribution	-12.1825
tended	-12.1826
▁multi	-12.1826
▁pump	-12.1828
▁ribbon	-12.1828
▁scripture	-12.1828
▁guinea	-12.183
mounting	-12.1832
▁astonish	-12.1832
▁burglar	-12.1834
▁practis	-12.1839
▁gla	-12.1842
▁maraud	-12.1842
▁arabian	-12.1843
children	-12.1845
▁spook	-12.1848
▁purpos	-12.1854
real	-12.1854
▁flicker	-12.1855
▁bandit	-12.1855
▁alley	-12.1855
▁medic	-12.1861
borough	-12.1865
▁benevolen	-12.1865
bolt	-12.1872
▁excellenc	-12.1886
▁creak	-12.1892
▁adventur	-12.1894
▁clark	-12.1901
▁partake	-12.1902
sumption	-12.1903
▁dishonor	-12.1903
directly	-12.1906
ps	-12.1906
▁disobey	-12.1907
▁sham	-12.1908
woodi	-12.1912
▁retort	-12.1914
▁jenk	-12.1914
touched	-12.1916
▁affront	-12.1918
▁bewitch	-12.192
▁essay	-12.1925
nate	-12.1926
▁tru	-12.1927
▁avaric	-12.1928
▁sap	-12.193
▁walt	-12.1931
▁connect	-12.1932
▁postpone	-12.1933
proof	-12.1933
ography	-12.1938
▁gue	-12.194
▁tremulous	-12.194
▁specifi	-12.1943
▁suffic	-12.1945
▁decade	-12.1945
▁geograph	-12.1946
xious	-12.1946
▁especial	-12.1946
▁gradual	-12.1947
lay	-12.1948
ky	-12.1949
med	-12.1949
got	-12.1949
▁exaggerate	-12.195
▁traveler	-12.1951
▁heav	-12.1952
▁arabia	-12.1952
▁magnet	-12.1957
▁hops	-12.1958
▁concurren	-12.196
▁prude	-12.1961
rance	-12.1963
▁mechanic	-12.1965
▁trad	-12.1966
▁holder	-12.1966
▁concierge	-12.197
▁metamorphos	-12.197
erlaski	-12.197
▁adjutant	-12.197
▁algonquin	-12.197
▁ambiguity	-12.197
▁aronnax	-12.197
▁asphyxiat	-12.197
▁austria	-12.197
▁bailiff	-12.197
▁bulwark	-12.197
▁dervish	-12.197
▁embellish	-12.197
▁etiquette	-12.197
▁expenditure	-12.197
▁exterior	-12.197
▁fidelity	-12.197
▁flycatcher	-12.197
▁fritillaria	-12.197
▁gathercole	-12.197
▁harlequin	-12.197
▁hierarchy	-12.197
▁holofernes	-12.197
▁impromptu	-12.197
▁indispensable	-12.197
▁iroquois	-12.197
▁katherine	-12.197
▁keseberg	-12.197
▁kodak	-12.197
▁laudonniere	-12.197
▁liedenbrock	-12.197
▁orthodox	-12.197
▁pamela	-12.197
▁peninsula	-12.197
▁pernicious	-12.197
▁perpendicular	-12.197
▁piebald	-12.197
▁plantagenet	-12.197
▁poffenburgh	-12.197
▁precinct	-12.197
▁prouvaire	-12.197
▁renaud	-12.197
▁resplendent	-12.197
▁sabbath	-12.197
▁satellite	-12.197
▁stuyvesant	-12.197
▁umegae	-12.197
▁bourbon	-12.197
▁bystanders	-12.197
▁dobbin	-12.197
▁hartfield	-12.197
▁imperturbabl	-12.197
▁propaganda	-12.197
▁psychotherapy	-12.197
▁shoreditch	-12.197
▁subjugat	-12.197
▁climax	-12.197
▁homogene	-12.197
▁nocturn	-12.197
▁kosis	-12.197
▁mahomet	-12.197
▁chebec	-12.197
▁undeniabl	-12.197
▁chemical	-12.197
▁colleague	-12.197
▁euphrates	-12.197
▁fuego	-12.197
▁licentiate	-12.197
▁steyne	-12.197
▁augment	-12.197
▁torpedo	-12.197
▁avalanche	-12.197
▁bagdad	-12.197
▁picnic	-12.197
▁tankerville	-12.197
▁tomahawk	-12.197
▁vicksburg	-12.197
▁compartment	-12.197
▁kova	-12.197
▁crusade	-12.197
▁hebrew	-12.197
▁parsley	-12.197
▁morbid	-12.197
▁garret	-12.197
▁uncouth	-12.197
▁transient	-12.197
▁unbearable	-12.197
bov	-12.197
▁qualification	-12.197
▁fannicot	-12.197
▁memorand	-12.197
▁intrusion	-12.197
▁skiff	-12.197
▁dixie	-12.197
▁havana	-12.197
▁charcoal	-12.197
▁confiscat	-12.197
▁jehu	-12.197
▁posterity	-12.197
▁grimshaw	-12.197
▁randolph	-12.197
▁camacho	-12.197
▁morgue	-12.197
▁derisive	-12.197
▁antagonism	-12.197
▁panama	-12.197
▁sixpence	-12.197
▁pinnacle	-12.197
▁darnay	-12.197
▁grotto	-12.197
▁uninterrupted	-12.197
▁texas	-12.197
▁anchovies	-12.197
▁reluctance	-12.197
▁carbine	-12.197
▁volley	-12.197
▁melodies	-12.197
▁apologetically	-12.1971
▁baseball	-12.1971
▁chaplain	-12.1971
▁encampment	-12.1971
▁heraclius	-12.1971
▁commendation	-12.1971
▁capricious	-12.1971
▁barbarity	-12.1971
▁hamish	-12.1971
▁manderson	-12.1971
▁sordid	-12.1971
▁malicious	-12.1971
▁eradicat	-12.1971
▁owain	-12.1971
▁underbrush	-12.1971
olyu	-12.1971
▁robson	-12.1971
▁alcove	-12.1971
▁baptism	-12.1971
▁oblivion	-12.1971
▁preuss	-12.1971
▁magnetic	-12.1971
▁fantasy	-12.1971
▁milltown	-12.1972
▁intuitive	-12.1972
▁peerage	-12.1972
▁initial	-12.1972
▁sympathetically	-12.1972
▁excavation	-12.1973
▁provocation	-12.1973
▁shimmer	-12.1973
▁leadership	-12.1973
▁landlady	-12.1973
▁location	-12.1973
▁philanthropy	-12.1973
▁label	-12.1974
▁repast	-12.1974
▁disagree	-12.1974
▁morsel	-12.1974
▁conversion	-12.1974
▁valuation	-12.1974
▁dubious	-12.1974
▁spontaneous	-12.1974
▁dunno	-12.1974
▁affirmative	-12.1974
▁censure	-12.1974
▁endanger	-12.1975
▁cornelia	-12.1975
brien	-12.1975
▁morphine	-12.1975
▁interminable	-12.1975
▁cockle	-12.1975
▁meditative	-12.1975
▁tuft	-12.1975
▁clement	-12.1976
▁stronghold	-12.1976
▁metaphysic	-12.1976
▁confederacy	-12.1976
▁foothold	-12.1976
▁investment	-12.1976
▁poker	-12.1976
▁denominated	-12.1976
▁fairyland	-12.1976
▁illumination	-12.1976
▁resonan	-12.1977
▁chunk	-12.1977
▁fugue	-12.1977
▁prophecy	-12.1977
▁harrington	-12.1977
▁attainment	-12.1977
▁originated	-12.1977
▁santa	-12.1977
▁transition	-12.1977
▁truant	-12.1977
▁godfather	-12.1977
▁twitch	-12.1978
▁tendencies	-12.1978
▁downcast	-12.1978
▁warren	-12.1979
▁comprehension	-12.1979
band	-12.1979
▁usurpation	-12.1979
▁client	-12.1979
▁draft	-12.198
▁glossy	-12.1981
tinue	-12.1981
▁ferment	-12.1981
▁stimulation	-12.1982
▁surf	-12.1982
▁ignominious	-12.1982
▁implicit	-12.1983
▁policemen	-12.1983
▁mammy	-12.1983
▁germ	-12.1983
▁chaperone	-12.1984
▁skimming	-12.1984
▁daemon	-12.1985
▁elapsed	-12.1985
▁accompaniment	-12.1985
▁electors	-12.1985
▁immigrants	-12.1985
▁multiplied	-12.1986
▁applaud	-12.1987
gnant	-12.1987
▁accurately	-12.1987
▁grease	-12.1987
▁impetuous	-12.1987
▁lecturer	-12.1988
▁outrageous	-12.1988
ington	-12.199
▁trumpet	-12.199
▁deign	-12.199
boro	-12.1992
▁patten	-12.1992
▁drapery	-12.1992
▁miseries	-12.1993
▁survivor	-12.1993
▁adverse	-12.1993
fe	-12.1994
▁imperious	-12.1994
▁alps	-12.1994
▁chemist	-12.1995
▁statesman	-12.1995
▁causal	-12.1995
▁jung	-12.1995
▁geography	-12.1996
▁sci	-12.1996
▁pike	-12.1996
▁blending	-12.1996
▁saki	-12.1997
▁uneven	-12.1997
▁ensure	-12.1997
▁submerged	-12.1997
▁taunt	-12.1997
▁recount	-12.1997
▁distraction	-12.1999
▁aimless	-12.1999
▁persecuted	-12.2
▁defiantly	-12.2001
▁contemptuously	-12.2002
▁loyally	-12.2002
▁incurred	-12.2002
▁visual	-12.2003
▁alleged	-12.2003
▁horseshoe	-12.2003
▁journalist	-12.2003
▁cleverness	-12.2003
▁abilities	-12.2003
▁skilful	-12.2003
▁berna	-12.2003
ron	-12.2003
▁calculation	-12.2004
▁lighthouse	-12.2004
▁appreciabl	-12.2007
▁thrashing	-12.2008
▁watchman	-12.2008
▁recoil	-12.2008
▁sacrificing	-12.2009
▁eleventh	-12.2009
▁crumb	-12.201
▁forthwith	-12.201
▁onion	-12.2011
▁bunce	-12.2011
▁crackled	-12.2011
▁sausages	-12.2011
▁barracks	-12.2011
▁englishmen	-12.2011
▁drily	-12.2012
▁avarice	-12.2012
▁astounded	-12.2013
▁eluded	-12.2013
▁inherent	-12.2014
▁quitt	-12.2014
▁yak	-12.2015
▁runners	-12.2015
▁sinner	-12.2016
concentration	-12.2016
▁hanna	-12.2016
▁pondered	-12.2018
▁yelp	-12.2018
▁pil	-12.2019
▁pell	-12.2019
▁sumptuous	-12.202
▁intruder	-12.202
▁discard	-12.202
▁enquired	-12.2022
▁wherefore	-12.2024
▁malign	-12.2025
▁snort	-12.2025
▁bushel	-12.2026
▁oppressive	-12.2027
▁befriend	-12.2027
▁matured	-12.2028
▁shelves	-12.2028
▁araby	-12.2028
hic	-12.2029
ealous	-12.2032
▁eaters	-12.2033
▁purser	-12.2033
▁annihilated	-12.2034
▁olympian	-12.2035
▁tedious	-12.2036
▁acorns	-12.2036
▁precipices	-12.2038
▁lamentations	-12.2038
▁shaved	-12.2039
▁tangible	-12.2041
▁interpreter	-12.2044
▁suffocat	-12.2046
▁sleeper	-12.2046
▁knocke	-12.2046
▁indoors	-12.2047
▁angular	-12.2048
ierra	-12.2048
▁acid	-12.2051
▁hysterics	-12.2052
▁blushes	-12.2055
▁miserabl	-12.2056
▁moderately	-12.2056
pe	-12.2056
▁caressing	-12.2056
▁inconvenient	-12.2057
▁pathway	-12.2057
▁thrash	-12.206
combe	-12.2062
▁quill	-12.2062
▁monarchy	-12.2062
▁querie	-12.2064
▁burrow	-12.2065
▁manufacturers	-12.2065
oom	-12.2068
▁helplessly	-12.207
▁waiters	-12.2071
▁throbb	-12.2071
▁payment	-12.2072
▁outlaw	-12.2073
▁conjectured	-12.2074
▁curts	-12.2075
▁fastening	-12.2076
▁heedless	-12.2076
▁flo	-12.2077
▁unload	-12.2077
▁disclos	-12.2077
▁indifferently	-12.2078
▁anew	-12.2079
▁alluded	-12.2079
▁conductor	-12.208
▁lope	-12.208
▁clang	-12.2081
▁knob	-12.2081
▁permanenc	-12.2082
▁tour	-12.2088
▁marken	-12.2088
▁jets	-12.2089
▁hucks	-12.2089
▁growling	-12.2091
▁eva	-12.2092
uffe	-12.2094
▁spine	-12.2095
▁triple	-12.2098
ule	-12.2098
ured	-12.2099
▁dissent	-12.21
▁repuls	-12.21
▁kindred	-12.21
▁despis	-12.2101
verbal	-12.2104
▁hetty	-12.2107
▁cunningly	-12.2108
▁outwardly	-12.2109
▁architectural	-12.2112
▁animate	-12.2112
▁slower	-12.2113
▁brake	-12.2113
▁defy	-12.2115
enna	-12.2115
▁trud	-12.2115
▁contributions	-12.2117
▁sentinels	-12.2117
thwart	-12.2118
▁verge	-12.2122
▁approache	-12.2122
▁scald	-12.2123
▁dainties	-12.2123
▁purit	-12.2125
▁merri	-12.2126
▁evade	-12.2127
▁leo	-12.2127
▁shuffle	-12.2129
▁scarf	-12.213
▁taxe	-12.213
▁ounce	-12.2131
lia	-12.2135
utu	-12.2135
▁role	-12.2136
▁hello	-12.2136
nal	-12.2141
▁pounding	-12.2144
▁explorer	-12.2148
fathers	-12.2149
▁intellectually	-12.2154
▁partners	-12.2157
▁quoted	-12.2157
tonia	-12.2161
▁roberts	-12.2161
▁rati	-12.2161
▁delicately	-12.2163
▁sicil	-12.2163
▁prominen	-12.2168
▁colosse	-12.2168
▁fringes	-12.2168
fixed	-12.2169
▁cushions	-12.217
▁quarrels	-12.2173
▁boasting	-12.2176
▁inconveniences	-12.2176
▁infantil	-12.2177
niver	-12.2179
▁reiterat	-12.218
go	-12.218
▁finery	-12.2181
▁inflammat	-12.2181
▁halo	-12.2182
▁wonderingly	-12.2186
▁billow	-12.2188
mp	-12.2192
▁cynical	-12.2194
▁sor	-12.2195
▁caprices	-12.2196
▁cedars	-12.2196
▁perceptions	-12.2197
▁gossiping	-12.2198
▁reclin	-12.2199
▁mourner	-12.2201
▁traders	-12.2205
▁wage	-12.2209
▁accumulat	-12.2215
▁hereabouts	-12.2216
▁clatter	-12.2217
▁entail	-12.2217
▁banish	-12.222
▁champions	-12.2222
▁conceivabl	-12.2223
▁solved	-12.2224
▁stating	-12.2226
▁lashing	-12.2227
▁jingle	-12.2227
▁insulted	-12.2227
▁lining	-12.2229
▁flooded	-12.2229
unning	-12.223
▁sward	-12.223
leigh	-12.2231
▁gamble	-12.2232
▁hearse	-12.2232
▁metallic	-12.2237
▁tink	-12.224
nder	-12.2242
▁moore	-12.2243
▁encountering	-12.2247
▁gag	-12.2248
▁boulder	-12.2253
▁signore	-12.2254
pa	-12.2255
▁assort	-12.2256
▁wrench	-12.2257
gu	-12.2258
top	-12.2259
▁squarely	-12.2259
▁bewail	-12.2261
▁draper	-12.2265
▁hoar	-12.2267
▁frag	-12.2268
▁kent	-12.2272
▁pawn	-12.2274
kiyo	-12.2275
▁canyons	-12.2276
ast	-12.2277
▁plantations	-12.2278
▁pretende	-12.2278
▁peas	-12.2279
▁maxims	-12.228
▁plane	-12.228
▁compris	-12.2285
ix	-12.2286
emia	-12.2288
▁despi	-12.229
will	-12.2294
▁dru	-12.2294
▁thwart	-12.2297
▁sorely	-12.2301
ew	-12.2301
▁arabs	-12.2304
▁psychical	-12.2309
▁planes	-12.2311
▁muskets	-12.2314
▁applica	-12.2315
▁shred	-12.2317
▁listless	-12.2318
▁attic	-12.2319
▁subsist	-12.232
uring	-12.2322
get	-12.2323
▁stimulate	-12.2324
▁nettle	-12.2326
▁fried	-12.2327
roving	-12.233
tolerable	-12.2332
▁poke	-12.2333
gie	-12.2334
▁laughingly	-12.2336
▁profane	-12.2336
▁ante	-12.2337
▁conjur	-12.234
▁legac	-12.2342
washed	-12.2343
▁merited	-12.2348
▁heighten	-12.2354
erald	-12.2356
▁hamper	-12.2357
▁rowing	-12.2365
▁repulsi	-12.2367
▁frankl	-12.2367
▁whoop	-12.2367
▁conciliat	-12.2371
▁empiric	-12.2372
▁irritate	-12.2377
annon	-12.2377
▁thrills	-12.2378
▁menstruati	-12.2378
▁wade	-12.238
▁cookie	-12.2394
end	-12.2395
▁clamp	-12.2399
western	-12.2406
rises	-12.2408
▁temptations	-12.2411
▁decor	-12.2415
ck	-12.2421
▁pont	-12.2423
folk	-12.2426
▁reed	-12.243
ually	-12.243
ses	-12.2442
▁loiter	-12.2449
▁boss	-12.2449
▁absorbing	-12.2453
▁goblin	-12.2455
una	-12.2458
▁canal	-12.2468
▁blott	-12.2471
ys	-12.2472
roubles	-12.2475
faced	-12.2476
▁crops	-12.2477
▁unspea	-12.2478
gency	-12.2482
▁variously	-12.2488
▁bubbl	-12.2489
▁appreciati	-12.2491
▁dire	-12.2498
▁farce	-12.2503
▁improbabl	-12.2504
▁ponder	-12.2509
▁bundles	-12.251
minent	-12.2512
▁inconceivabl	-12.2513
lt	-12.2518
fair	-12.2522
ram	-12.2533
ships	-12.2534
▁assistants	-12.2534
▁torrents	-12.2536
▁huss	-12.2537
▁shovel	-12.2541
▁churn	-12.2542
iles	-12.2551
▁shew	-12.2556
▁reformer	-12.2558
▁mending	-12.2564
▁shutt	-12.2565
▁compositions	-12.2569
▁herd	-12.2569
▁applications	-12.257
▁eventual	-12.257
ointed	-12.2571
tone	-12.2573
▁revere	-12.2573
eval	-12.2574
▁brac	-12.2574
▁burdens	-12.2575
▁contemporar	-12.2581
duous	-12.2584
▁raisin	-12.2584
▁hoof	-12.2588
▁charter	-12.2594
▁whitewash	-12.26
▁creeps	-12.2605
▁expound	-12.2613
▁brooks	-12.2615
▁wil	-12.262
▁gush	-12.2633
▁alderm	-12.2634
▁shingle	-12.2635
▁academic	-12.2635
solation	-12.2636
▁opi	-12.264
▁norman	-12.2646
obil	-12.2658
tish	-12.2658
ugh	-12.2659
inal	-12.2659
▁humb	-12.2672
▁consecrate	-12.2673
▁russe	-12.2678
ell	-12.268
▁dove	-12.2681
▁mince	-12.2685
▁file	-12.2694
▁beer	-12.2701
▁doorways	-12.2701
▁enterprises	-12.2705
▁inhale	-12.2706
mus	-12.2713
pus	-12.2715
ents	-12.2718
oman	-12.2721
▁propagat	-12.2723
annel	-12.2729
▁strawberr	-12.2729
ading	-12.2732
▁parks	-12.2735
▁sleeps	-12.2739
▁pier	-12.2739
icity	-12.2742
▁guides	-12.2742
▁broil	-12.2744
▁dispatche	-12.275
▁hears	-12.2751
▁eclipse	-12.2755
▁cas	-12.2755
inkling	-12.2756
cantile	-12.2761
▁benefits	-12.2769
hereabouts	-12.277
shu	-12.2771
▁varie	-12.2776
▁droll	-12.278
▁stiffen	-12.2786
▁git	-12.2791
▁gera	-12.2795
▁blacken	-12.2802
par	-12.2808
▁regiments	-12.2814
▁bel	-12.2818
▁formi	-12.2822
ils	-12.2827
ct	-12.283
▁degrade	-12.2834
bel	-12.2836
ternal	-12.2842
▁uns	-12.2842
▁ston	-12.2845
organ	-12.2845
assuring	-12.2845
▁broker	-12.2854
▁surg	-12.2856
▁carne	-12.2859
hi	-12.2864
ently	-12.2866
▁paddl	-12.2875
▁revolutionar	-12.2879
▁drugg	-12.288
▁wal	-12.2882
▁sentences	-12.2886
ev	-12.2894
▁visibl	-12.29
▁tub	-12.29
▁wield	-12.2902
▁feasts	-12.2917
▁seque	-12.2924
▁sai	-12.2925
▁pel	-12.2926
durable	-12.2929
culties	-12.294
▁poo	-12.2943
▁digest	-12.2948
▁theodo	-12.2951
▁era	-12.2956
rok	-12.2956
▁tarta	-12.296
▁exasperat	-12.296
▁casi	-12.2967
uch	-12.2967
▁dodge	-12.297
yo	-12.2983
▁lists	-12.2986
▁huts	-12.299
▁displace	-12.2992
own	-12.2998
▁pea	-12.3001
▁sleepless	-12.301
▁despoti	-12.3022
▁verb	-12.3026
lar	-12.303
▁ambu	-12.3032
ign	-12.3033
▁caps	-12.3044
hole	-12.3046
▁maur	-12.3048
▁wrongs	-12.3053
rled	-12.3062
▁soundly	-12.307
▁perceives	-12.3076
that	-12.3081
▁woo	-12.3097
drops	-12.3102
blinking	-12.3104
▁juan	-12.3111
sy	-12.3114
▁peoples	-12.3114
tern	-12.3119
▁lore	-12.3133
ran	-12.3135
▁practices	-12.3136
eak	-12.3146
▁marv	-12.3163
▁airs	-12.3175
▁exulta	-12.3189
cting	-12.3201
▁polishe	-12.3202
▁accidents	-12.3213
▁mel	-12.3217
test	-12.3218
nash	-12.3229
amorous	-12.3232
pose	-12.3254
▁momentar	-12.3262
ger	-12.3263
balanced	-12.3265
▁hip	-12.3266
▁committ	-12.3276
▁institute	-12.3277
lated	-12.328
▁ambush	-12.3282
▁breaker	-12.3282
anny	-12.3283
ren	-12.3285
▁artful	-12.3291
▁christians	-12.3293
▁prov	-12.3296
▁lastly	-12.3297
ligence	-12.3299
▁stationar	-12.3309
▁trades	-12.3317
quet	-12.3317
▁sensational	-12.3318
▁deduc	-12.3346
▁burg	-12.3353
oo	-12.3354
▁strangle	-12.3376
▁anim	-12.3381
▁brides	-12.3383
▁jeer	-12.3385
▁practic	-12.3386
num	-12.3389
mark	-12.3391
uple	-12.3392
▁patt	-12.3395
▁purge	-12.34
giving	-12.3407
lo	-12.3409
▁resid	-12.3417
▁ap	-12.3427
▁compress	-12.3431
▁adult	-12.3432
▁cooks	-12.3434
scar	-12.3434
▁mal	-12.3442
▁afore	-12.3445
nding	-12.3446
vable	-12.3447
inking	-12.3448
▁noticeabl	-12.345
▁baffl	-12.3451
▁silenced	-12.3458
▁fet	-12.3459
daunted	-12.346
▁animat	-12.3462
▁dens	-12.3467
▁tense	-12.347
ldest	-12.3472
rawlin	-12.3485
▁weave	-12.3489
▁dispense	-12.3527
tious	-12.3532
▁rhythmic	-12.3539
▁sola	-12.354
▁isle	-12.354
profitable	-12.3541
▁insert	-12.3542
▁greate	-12.3554
▁suffuse	-12.3563
aimed	-12.3567
▁puck	-12.357
▁epi	-12.3574
▁persuad	-12.3577
▁theirs	-12.3579
▁peal	-12.358
▁lever	-12.3581
▁lectures	-12.3585
▁chub	-12.3586
boat	-12.3587
spread	-12.359
aggard	-12.359
cus	-12.3599
ni	-12.3599
nes	-12.3605
▁cube	-12.361
enunciation	-12.3612
▁cracker	-12.3613
breast	-12.3637
▁hom	-12.366
▁rom	-12.3669
▁sig	-12.367
burn	-12.3677
▁despot	-12.3681
mine	-12.3681
bishop	-12.3684
haven	-12.3685
equality	-12.3688
accustom	-12.3689
aples	-12.3694
craft	-12.3695
feller	-12.3697
▁uninterest	-12.3698
rowing	-12.3699
▁spat	-12.3704
▁acknowledg	-12.3709
pipes	-12.3717
▁evolve	-12.3725
▁hun	-12.3725
fusion	-12.3728
morali	-12.3729
▁appoint	-12.3735
▁dignit	-12.3735
▁elect	-12.3739
▁slav	-12.3741
▁charg	-12.3742
bird	-12.3748
▁quarrell	-12.3748
seen	-12.3758
▁ego	-12.3763
▁accumulate	-12.3763
borne	-12.3777
▁archi	-12.3781
rley	-12.3782
▁usurp	-12.3784
▁robb	-12.3785
▁kil	-12.3787
▁disput	-12.3788
▁politic	-12.3791
rious	-12.3792
patio	-12.3797
uma	-12.3797
▁demonstrat	-12.3797
▁tortoise	-12.3797
sincerity	-12.3798
▁syllable	-12.3798
▁dialect	-12.3798
▁accommodation	-12.3798
▁oracle	-12.3799
▁discharg	-12.38
▁carew	-12.3806
ss	-12.3808
▁ple	-12.3809
▁prescription	-12.3813
▁stew	-12.3814
covered	-12.3815
▁mosque	-12.3816
▁hoist	-12.3817
▁crosse	-12.3819
▁phase	-12.3822
▁jade	-12.3824
▁quak	-12.3825
▁representation	-12.3826
▁disadvantage	-12.3828
empt	-12.3829
▁limitation	-12.383
▁combatant	-12.3831
▁depriv	-12.3837
▁manifestation	-12.3838
▁coax	-12.3844
▁flapp	-12.3857
usilla	-12.386
▁elm	-12.386
▁fanatic	-12.3861
▁announc	-12.3862
▁resum	-12.3862
▁bard	-12.3872
▁lasting	-12.3876
ost	-12.3879
▁beseech	-12.388
▁irre	-12.3884
▁sculpt	-12.3885
printing	-12.3885
▁syrian	-12.3886
▁breasts	-12.3889
▁arrang	-12.3891
stler	-12.3891
odanga	-12.3893
▁intercept	-12.3896
▁unanswer	-12.3898
tland	-12.3899
▁feign	-12.3906
▁imprison	-12.3908
▁chatter	-12.3909
▁decorate	-12.3911
▁sla	-12.3911
hab	-12.3913
▁abolish	-12.3913
▁plug	-12.3915
▁wav	-12.3916
oping	-12.3917
agne	-12.3918
▁retract	-12.3925
▁prolong	-12.3925
dley	-12.3931
neill	-12.3931
▁provoke	-12.3932
oggle	-12.3934
▁cla	-12.3934
▁victoria	-12.3935
▁retrac	-12.3936
▁northeast	-12.3938
▁villager	-12.3938
▁doleful	-12.394
▁explor	-12.3941
▁disconsolate	-12.3942
▁shah	-12.3942
▁attire	-12.3943
ara	-12.3944
▁recite	-12.3945
▁enquire	-12.3945
▁shac	-12.3946
▁clamor	-12.3946
▁luxurious	-12.3946
▁fluctuati	-12.3946
▁satisfactor	-12.3946
▁restrict	-12.3948
▁sheepish	-12.3952
▁ironical	-12.3953
▁luther	-12.3954
▁absor	-12.3954
nel	-12.3955
▁locate	-12.3956
▁maximu	-12.3959
▁cess	-12.396
gs	-12.3961
arry	-12.3961
tuitous	-12.3961
▁believes	-12.3962
▁harris	-12.3963
▁destructi	-12.3964
▁prescribe	-12.3966
▁fickle	-12.3967
▁cobb	-12.3967
▁stations	-12.3967
▁authentic	-12.3967
▁crucifix	-12.3968
▁transcend	-12.3968
▁techni	-12.3969
▁hound	-12.397
▁aeroplane	-12.397
▁anecdote	-12.397
▁appellation	-12.397
▁athletic	-12.397
▁belostoma	-12.397
▁bloodhounds	-12.397
▁bogucharovo	-12.397
▁calendar	-12.397
▁calhoun	-12.397
▁capitol	-12.397
▁ceremonial	-12.397
▁condescension	-12.397
▁contagion	-12.397
▁contiguous	-12.397
▁culprit	-12.397
▁dexterity	-12.397
▁disillusion	-12.397
▁dorincourt	-12.397
▁effulgen	-12.397
▁fontainebleau	-12.397
▁glasgow	-12.397
▁haljan	-12.397
▁inadequate	-12.397
▁inextricabl	-12.397
▁jacob	-12.397
▁kolocha	-12.397
▁kubi	-12.397
▁malleson	-12.397
▁moccasin	-12.397
▁morcerf	-12.397
▁mullins	-12.397
▁negligible	-12.397
▁noirtier	-12.397
▁obsolete	-12.397
▁ossoli	-12.397
▁palanquin	-12.397
▁pantomime	-12.397
▁poindexter	-12.397
▁practitioner	-12.397
▁prerogative	-12.397
▁procedure	-12.397
▁rhetoric	-12.397
▁saviour	-12.397
▁scorpion	-12.397
▁sulphur	-12.397
▁sutherland	-12.397
▁unalaska	-12.397
▁unequivocal	-12.397
▁unexplored	-12.397
▁vagabond	-12.397
▁woodpecker	-12.397
▁circumference	-12.397
▁combeferre	-12.397
▁crianan	-12.397
▁cynthia	-12.397
▁glenora	-12.397
▁harangue	-12.397
▁leopard	-12.397
▁mushroom	-12.397
▁sluggish	-12.397
▁subterrane	-12.397
▁supremacy	-12.397
▁unintentional	-12.397
▁vanquish	-12.397
▁weishaupt	-12.397
▁wrangell	-12.397
▁assiduous	-12.397
▁delirium	-12.397
▁louisiana	-12.397
▁nesbit	-12.397
▁stickleback	-12.397
▁truchen	-12.397
▁voltaire	-12.397
▁enliven	-12.397
▁ludlow	-12.397
▁pygm	-12.397
▁warhoon	-12.397
▁broadsheet	-12.397
▁complacency	-12.397
▁covenant	-12.397
▁honeymoon	-12.397
▁netherfield	-12.397
▁revoir	-12.397
▁romanianus	-12.397
▁sardonic	-12.397
▁sniff	-12.397
biorn	-12.397
▁raymie	-12.397
▁rebuff	-12.397
▁belgium	-12.397
▁replenish	-12.397
▁vassal	-12.397
▁diplomacy	-12.397
▁jehoia	-12.397
▁superfluous	-12.397
▁bridmain	-12.397
▁eponine	-12.397
▁perspective	-12.397
▁shrub	-12.397
▁thunderstorm	-12.397
▁colvin	-12.397
▁vintage	-12.397
▁memorial	-12.397
▁seclusion	-12.397
▁admonition	-12.397
▁appertain	-12.397
▁entrenchments	-12.397
▁precept	-12.397
▁bramble	-12.397
▁unicorn	-12.397
▁vomit	-12.397
▁knollys	-12.397
▁pauper	-12.397
▁vallejo	-12.397
▁censorship	-12.397
▁holborn	-12.397
▁besiege	-12.397
▁retaliat	-12.397
▁glutton	-12.397
▁discomfiture	-12.397
▁rudiment	-12.397
▁shrimp	-12.397
▁unwitting	-12.397
▁bastard	-12.397
▁tumultuous	-12.397
▁licence	-12.397
▁aptitude	-12.397
▁affright	-12.397
▁dissipation	-12.397
▁flanders	-12.397
▁moraine	-12.397
▁turret	-12.397
▁brooklyn	-12.397
▁asiatic	-12.397
▁avowal	-12.397
▁mutton	-12.397
▁veranda	-12.397
▁ascendancy	-12.397
▁bhaer	-12.397
▁missionaries	-12.397
▁tassel	-12.397
▁disquiet	-12.397
▁seaweed	-12.397
▁undisturbed	-12.397
▁astute	-12.397
▁ketch	-12.397
▁ordinance	-12.397
▁hindrance	-12.397
▁chichester	-12.397
▁scoff	-12.397
▁civilisation	-12.3971
▁coloma	-12.3971
▁cutlass	-12.3971
▁minnie	-12.3971
▁infallibl	-12.3971
▁smuggle	-12.3971
▁arsenal	-12.3971
▁maskew	-12.3971
▁petals	-12.3971
▁subsistence	-12.3971
▁workmanship	-12.3971
▁arrogance	-12.3971
▁sisson	-12.3971
▁spasm	-12.3971
▁watson	-12.3971
▁scept	-12.3971
▁auditor	-12.3971
▁crutches	-12.3971
▁pallid	-12.3971
▁blindfold	-12.3971
▁waterloo	-12.3971
▁gooch	-12.3971
▁patrol	-12.3971
▁taube	-12.3971
▁syllogism	-12.3971
▁malignant	-12.3971
▁polyte	-12.3972
▁josie	-12.3972
▁agility	-12.3972
▁orifice	-12.3972
▁cavern	-12.3972
▁chivalrous	-12.3972
▁forbidding	-12.3972
▁doorstep	-12.3972
▁sarcas	-12.3972
▁sopho	-12.3972
▁homestead	-12.3972
▁dishevel	-12.3972
▁preface	-12.3972
▁critter	-12.3973
▁foreground	-12.3973
▁adobe	-12.3973
▁modified	-12.3973
▁tropical	-12.3973
▁stuart	-12.3973
▁condemnation	-12.3973
▁whiff	-12.3973
▁mortar	-12.3973
▁alaba	-12.3973
▁rosebud	-12.3974
▁unpack	-12.3974
▁unfeeling	-12.3974
▁doroth	-12.3974
continent	-12.3974
▁sentimentality	-12.3974
▁carteret	-12.3974
▁delicac	-12.3974
▁christened	-12.3974
▁carrington	-12.3974
▁pageant	-12.3974
▁chestnut	-12.3974
▁florian	-12.3975
▁columbine	-12.3975
▁apprehensi	-12.3975
▁mutiny	-12.3975
▁malady	-12.3975
▁mishap	-12.3975
▁sidewise	-12.3975
▁woodyard	-12.3976
▁inertness	-12.3976
▁seattle	-12.3976
▁imposition	-12.3976
▁prawn	-12.3976
ab	-12.3976
▁dearborn	-12.3976
▁galilee	-12.3976
▁cultivator	-12.3977
▁lattice	-12.3977
▁harrison	-12.3977
▁narration	-12.3977
▁elton	-12.3977
▁ancestral	-12.3977
▁scoop	-12.3977
▁groove	-12.3977
▁pews	-12.3977
▁monastery	-12.3977
▁recklessness	-12.3978
▁rustic	-12.3978
▁serfs	-12.3979
▁discriminate	-12.3979
▁broth	-12.3979
▁complement	-12.3979
▁punctually	-12.3979
▁interaction	-12.398
▁scheming	-12.398
▁crescent	-12.398
▁savant	-12.398
▁pantry	-12.398
mbled	-12.398
▁pathos	-12.3981
▁clew	-12.3981
▁parliamentary	-12.3981
▁blithe	-12.3981
▁firewood	-12.3982
▁baronet	-12.3982
▁unwise	-12.3982
▁asgard	-12.3982
▁emergency	-12.3982
addy	-12.3982
▁egyptian	-12.3982
▁newsboy	-12.3983
▁korean	-12.3983
▁fraction	-12.3983
▁eliot	-12.3983
▁propeller	-12.3983
▁transformation	-12.3983
▁gradation	-12.3983
▁gaul	-12.3984
▁chattel	-12.3984
▁chisel	-12.3984
▁fatten	-12.3984
▁quarry	-12.3984
▁madden	-12.3984
▁handicap	-12.3985
▁prediction	-12.3985
▁jealousies	-12.3985
▁contentment	-12.3985
▁whatsoever	-12.3985
▁mick	-12.3985
▁imploringly	-12.3985
▁massey	-12.3985
▁pedant	-12.3985
▁infantry	-12.3985
▁eavesdropper	-12.3986
▁editorial	-12.3987
▁counsellor	-12.3987
▁sagacious	-12.3988
▁notoriet	-12.3988
▁outcast	-12.3988
▁violin	-12.3988
▁admirabl	-12.3989
▁poorly	-12.3989
bule	-12.399
▁hypocrite	-12.399
▁pember	-12.399
▁babylonians	-12.399
▁wegg	-12.3991
▁feebleness	-12.3992
▁madmen	-12.3992
▁helplessness	-12.3992
▁heredity	-12.3992
▁somethin	-12.3993
▁tilted	-12.3993
▁chanty	-12.3994
▁brawne	-12.3995
▁geologist	-12.3995
▁slang	-12.3995
▁repulsion	-12.3995
▁mustache	-12.3995
▁indigen	-12.3995
▁tenement	-12.3996
▁inducement	-12.3997
▁volcano	-12.3997
▁ferret	-12.3997
▁civi	-12.3997
▁coaches	-12.3997
▁complacent	-12.3998
▁polar	-12.3998
▁hooker	-12.3998
▁deject	-12.3998
▁alexandria	-12.3998
▁ecstas	-12.3999
▁affinit	-12.3999
▁ravage	-12.4
▁ruinous	-12.4
▁skipper	-12.4001
▁geese	-12.4001
▁seesaw	-12.4001
▁chuckle	-12.4002
▁womb	-12.4002
▁formality	-12.4002
▁scramble	-12.4002
ends	-12.4004
▁sternness	-12.4005
▁individuality	-12.4005
semblance	-12.4005
▁carolina	-12.4005
▁arabin	-12.4006
▁freak	-12.4006
▁scandalous	-12.4007
▁quotation	-12.4007
▁levice	-12.4007
▁funnel	-12.4007
▁trapping	-12.4007
▁disguising	-12.4008
▁spade	-12.4008
▁capturing	-12.4008
▁excluded	-12.4008
▁sketches	-12.4009
▁hilari	-12.4009
▁benign	-12.401
▁protrud	-12.401
▁ruffled	-12.401
▁uprising	-12.401
▁bunches	-12.4015
▁carlos	-12.4015
▁trimming	-12.4015
nheim	-12.4016
hild	-12.4016
▁easel	-12.4017
▁prowler	-12.4017
▁fibre	-12.4018
▁imaginative	-12.4018
▁snore	-12.4018
▁endow	-12.4019
▁stifled	-12.4019
▁disarmed	-12.4019
▁efface	-12.402
▁carrot	-12.402
▁immoral	-12.4021
▁decorations	-12.4022
▁enjoyable	-12.4022
▁tush	-12.4022
▁inconsiderable	-12.4023
▁mosses	-12.4023
▁tallest	-12.4024
▁impeach	-12.4024
▁impair	-12.4024
▁moses	-12.4027
▁rudder	-12.4028
▁abolished	-12.4028
▁morris	-12.4029
▁cox	-12.403
▁footmen	-12.4031
▁postponed	-12.4031
▁mole	-12.4031
▁hurst	-12.4034
▁devout	-12.4035
▁attired	-12.4035
▁spoonful	-12.4036
▁unjustly	-12.4037
nch	-12.4038
ose	-12.404
▁occupie	-12.404
▁publicity	-12.404
▁jackass	-12.4042
▁contingenc	-12.4042
▁glint	-12.4043
▁manufactured	-12.4044
▁arouse	-12.4045
▁woodland	-12.4045
▁embarrassing	-12.4047
▁embers	-12.4048
▁loop	-12.4049
▁annihilate	-12.4049
▁degenerate	-12.405
▁confiding	-12.405
▁squaws	-12.4051
▁raider	-12.4052
▁strides	-12.4053
▁ballad	-12.4054
▁sonnets	-12.4054
▁candidates	-12.4054
▁undream	-12.4054
▁adored	-12.4054
▁quickness	-12.4055
▁victorian	-12.4061
▁astound	-12.4063
▁uncomfortabl	-12.4063
▁quivered	-12.4063
▁preclude	-12.4064
▁chaf	-12.4064
▁comedy	-12.4064
▁scuffl	-12.4065
▁coughed	-12.4068
▁disarm	-12.4069
▁suspiciously	-12.407
▁severn	-12.4072
▁reverie	-12.4072
▁florid	-12.4074
▁milan	-12.4074
▁chas	-12.4074
▁regis	-12.4074
▁conservati	-12.4077
▁shameless	-12.4079
▁fanatical	-12.408
▁noisi	-12.4082
▁boling	-12.4083
▁surmount	-12.4085
nasty	-12.4085
▁vapours	-12.4086
▁galleys	-12.4087
▁certificates	-12.4087
▁trench	-12.4087
▁encircle	-12.4088
▁deprav	-12.409
▁enigmas	-12.409
▁poise	-12.4091
▁delegate	-12.4092
▁tracing	-12.4094
▁unheed	-12.4097
▁extenuat	-12.4098
▁regal	-12.4098
▁adventurers	-12.4098
▁consequent	-12.4101
▁groundless	-12.4105
▁hustle	-12.4105
▁explosi	-12.4105
▁scratching	-12.4106
▁ruthless	-12.4107
▁spice	-12.4107
▁glut	-12.4108
▁demur	-12.4108
detour	-12.4109
▁coaxing	-12.411
▁unbelievabl	-12.411
▁outdoor	-12.4112
▁precis	-12.4113
flakes	-12.4117
furi	-12.4119
called	-12.4119
▁rasp	-12.4119
▁ambassador	-12.412
▁practise	-12.4121
▁limitations	-12.4121
▁braver	-12.4122
▁irritati	-12.4124
▁eu	-12.4125
▁lili	-12.4134
▁atlas	-12.4135
▁tremendously	-12.4137
▁endur	-12.4138
▁beque	-12.4138
▁trains	-12.4138
▁fleeing	-12.414
woke	-12.4142
▁spott	-12.4146
arity	-12.4146
▁faltering	-12.4148
▁spooks	-12.4149
▁pumps	-12.415
▁vetch	-12.4156
▁naturedly	-12.4158
tuous	-12.4159
▁adore	-12.4159
▁mistresses	-12.4159
▁impresse	-12.4161
▁suspend	-12.4162
▁sieve	-12.4162
▁specter	-12.4162
▁dashing	-12.4165
▁containe	-12.417
arrington	-12.4173
▁colouring	-12.4177
ong	-12.4178
▁rumours	-12.4178
▁savell	-12.4178
▁testifie	-12.4181
▁suitor	-12.4183
ixt	-12.4184
▁scruples	-12.4184
▁player	-12.4185
▁haunts	-12.4185
▁chords	-12.4185
▁patriarchs	-12.4186
▁predecessors	-12.4186
▁lovingly	-12.4187
▁kal	-12.4188
kins	-12.4191
▁nicer	-12.4192
▁productive	-12.4192
▁bolted	-12.4193
▁unroll	-12.4194
▁gib	-12.4195
▁pensioner	-12.4197
▁interchange	-12.4199
lux	-12.4199
▁ant	-12.4204
▁painters	-12.4205
▁gloss	-12.4207
▁grasses	-12.421
tracted	-12.4212
▁illustrat	-12.4213
espite	-12.4218
▁willow	-12.4219
▁omnip	-12.4222
▁pebbles	-12.4223
▁ficti	-12.4223
▁distinctive	-12.4225
▁disc	-12.4232
▁assuredly	-12.424
▁flavo	-12.4243
bly	-12.4245
▁cassi	-12.4245
▁def	-12.4247
iling	-12.425
rivi	-12.426
ella	-12.4261
▁chimer	-12.4262
▁idiotic	-12.4265
▁bennett	-12.4265
▁fatigued	-12.4266
▁iv	-12.4267
▁healed	-12.4268
little	-12.4276
▁irresolut	-12.4276
▁samples	-12.4277
lusive	-12.4284
▁medal	-12.4284
▁apparitions	-12.4286
▁puffs	-12.4286
▁necessitate	-12.4287
▁coquett	-12.4292
▁jus	-12.4296
▁redress	-12.4297
▁recovery	-12.4298
▁stewp	-12.4301
▁grind	-12.4306
▁precedent	-12.4307
hip	-12.4307
yos	-12.4308
▁supplying	-12.4308
▁cau	-12.4312
▁augur	-12.4314
▁pretences	-12.4317
▁tickets	-12.4321
▁ph	-12.4321
▁preachers	-12.4322
▁ross	-12.433
▁delightedly	-12.4333
▁repell	-12.4338
▁dolls	-12.4341
▁signifi	-12.4342
▁experimental	-12.4347
▁tumbler	-12.4347
paces	-12.4349
▁betw	-12.4349
▁ka	-12.4353
▁virtuo	-12.4357
▁cruis	-12.4363
op	-12.4363
▁clyt	-12.4364
▁bl	-12.4369
▁clipp	-12.4369
▁physics	-12.4372
▁braid	-12.4374
▁aggregate	-12.4376
▁thicken	-12.4377
▁benedict	-12.4377
▁diffiden	-12.4379
▁lobsters	-12.4384
▁panels	-12.4387
▁hal	-12.4395
▁griev	-12.4395
lying	-12.4395
▁moulder	-12.4401
▁pauses	-12.4408
▁meditat	-12.4408
she	-12.4411
▁pret	-12.4413
▁fervo	-12.4413
▁torments	-12.4415
▁clan	-12.442
▁concerts	-12.442
told	-12.442
▁drugs	-12.4427
▁sneering	-12.4431
proxim	-12.4432
▁impuden	-12.4433
▁moans	-12.4434
agre	-12.4437
▁rocke	-12.4437
chance	-12.4441
▁methodical	-12.4441
▁brutes	-12.4445
▁gall	-12.4449
▁projectiles	-12.4451
▁insubordinat	-12.4452
▁scornful	-12.4453
▁bur	-12.4458
▁radish	-12.4459
stic	-12.4463
tan	-12.4464
▁harpoon	-12.4464
▁fry	-12.4466
iselle	-12.4466
▁sociabl	-12.4466
trophi	-12.4467
rt	-12.4467
▁approving	-12.4468
▁statu	-12.4482
▁luna	-12.4486
▁misty	-12.4487
▁deft	-12.4488
ang	-12.449
▁unhappi	-12.4491
▁humoured	-12.4494
ellan	-12.4499
▁trough	-12.45
shine	-12.4501
▁rit	-12.4504
▁scouts	-12.4505
tes	-12.451
vous	-12.4512
▁intrude	-12.4513
atel	-12.4516
dest	-12.4519
▁rep	-12.4524
▁prop	-12.4526
lis	-12.4529
rk	-12.453
▁grapple	-12.4537
▁patterns	-12.4541
▁consume	-12.4544
▁layer	-12.4553
hren	-12.4558
▁lyon	-12.456
▁masks	-12.4561
▁chide	-12.4564
tained	-12.4566
▁reminde	-12.4569
▁tapes	-12.4571
▁mended	-12.4572
▁ag	-12.4577
▁rad	-12.4579
kable	-12.4583
onia	-12.4583
▁rains	-12.4584
scended	-12.4587
▁whack	-12.4587
▁insistent	-12.4592
malfi	-12.4595
▁deliberat	-12.4597
ric	-12.4598
▁recur	-12.4599
▁resound	-12.4603
works	-12.4605
vation	-12.4608
▁induc	-12.4611
▁blu	-12.4612
▁scann	-12.4615
stille	-12.4622
uck	-12.4623
idden	-12.4624
▁tuck	-12.4628
▁kisse	-12.463
▁rever	-12.4631
but	-12.4639
▁pulses	-12.4639
▁responsi	-12.4643
▁profus	-12.4645
▁archer	-12.4649
▁heath	-12.4651
▁chron	-12.466
undry	-12.4661
vities	-12.4672
▁kid	-12.4672
▁jackets	-12.4681
▁inclinations	-12.4682
▁ado	-12.4683
xel	-12.4683
hing	-12.4686
▁farms	-12.4689
mulate	-12.4699
▁quell	-12.47
▁whites	-12.4713
▁stomachs	-12.4714
▁supervis	-12.4728
▁rejoic	-12.4737
▁dish	-12.4742
▁insensibl	-12.4743
▁philippi	-12.4743
where	-12.4746
cimeter	-12.4748
▁sterl	-12.4749
odgers	-12.4752
onies	-12.4753
elling	-12.4758
▁ferv	-12.4768
▁trifles	-12.4772
tually	-12.4779
harley	-12.4782
▁lab	-12.4783
▁weeds	-12.4783
▁peg	-12.4789
▁rally	-12.479
▁skinne	-12.4794
▁sales	-12.4795
▁crossly	-12.4796
els	-12.4797
▁incongru	-12.4808
cons	-12.481
▁mumm	-12.4813
▁reserves	-12.4817
gue	-12.4822
▁narrows	-12.4823
▁gar	-12.4823
rable	-12.4826
▁grimace	-12.4828
▁aye	-12.4862
mar	-12.4869
ax	-12.4878
▁decisions	-12.4879
eman	-12.4879
▁appli	-12.4882
▁viv	-12.4883
su	-12.4888
▁rogers	-12.4889
▁detach	-12.4892
nts	-12.4895
▁nun	-12.4899
▁mingl	-12.4905
▁hypocri	-12.4912
▁solemnit	-12.4915
tle	-12.4917
rant	-12.4924
▁ridges	-12.4937
laying	-12.4939
larity	-12.4946
sius	-12.4954
horn	-12.4956
▁pyr	-12.4956
tter	-12.4957
▁nodd	-12.4958
▁marriages	-12.4964
wise	-12.4965
uk	-12.4971
▁siren	-12.4976
▁stilled	-12.4977
leak	-12.4978
▁helm	-12.4984
ficiency	-12.4997
▁chew	-12.5
▁trickl	-12.5009
▁surpass	-12.502
▁merce	-12.5033
▁seaman	-12.504
pan	-12.5042
ening	-12.506
▁caress	-12.5064
▁reigns	-12.507
▁crave	-12.5074
▁naviga	-12.5076
▁signifie	-12.5077
bted	-12.5079
▁labours	-12.508
cking	-12.5094
▁termin	-12.5096
▁lucki	-12.5099
▁stimulat	-12.5101
tar	-12.5115
▁wis	-12.5118
▁squires	-12.5129
▁bespeak	-12.5134
▁pounce	-12.5135
mitted	-12.5138
▁diminishe	-12.5142
▁unsettl	-12.5143
oodle	-12.5143
▁bawl	-12.5152
uous	-12.5153
▁forego	-12.5159
lick	-12.516
▁somers	-12.5174
▁inmate	-12.5184
sity	-12.5186
▁jam	-12.519
▁fins	-12.5195
▁aids	-12.52
rai	-12.5204
▁fines	-12.5209
▁tilt	-12.521
▁widen	-12.521
▁bounti	-12.5214
arrow	-12.5215
▁lease	-12.5216
▁grouping	-12.5218
aking	-12.5229
pt	-12.5233
▁pots	-12.5236
▁shakes	-12.5236
▁displac	-12.5238
▁lauda	-12.5243
▁pad	-12.5243
▁jolt	-12.5246
▁echoe	-12.5249
anka	-12.525
rdan	-12.5261
cared	-12.5262
▁thr	-12.5273
treaty	-12.5284
auntle	-12.5291
▁intermediat	-12.5293
▁steadi	-12.5297
▁handi	-12.5297
▁lin	-12.5299
▁sid	-12.5303
▁devis	-12.5319
body	-12.5326
egu	-12.5335
ification	-12.5337
▁equ	-12.5337
rned	-12.5344
▁smelt	-12.5345
▁inaudibl	-12.5351
▁qualifie	-12.5359
▁flute	-12.5369
ature	-12.5373
ox	-12.5382
tain	-12.5389
▁questioning	-12.539
▁omit	-12.5392
▁solace	-12.5395
▁casualt	-12.5396
▁justifi	-12.5403
▁reproduce	-12.5408
▁unite	-12.5413
▁ranges	-12.5418
▁mot	-12.5434
mplac	-12.5436
▁adhere	-12.5438
ewis	-12.544
▁perplex	-12.5443
ermain	-12.5446
ahoga	-12.5448
advert	-12.5455
ale	-12.5458
tieth	-12.546
▁cont	-12.5463
mer	-12.5464
▁lustr	-12.5464
▁councils	-12.5465
▁befall	-12.5484
ki	-12.5497
▁unfl	-12.5501
sk	-12.5505
▁uncover	-12.5508
▁riche	-12.5513
▁voyages	-12.5528
▁bro	-12.5533
▁incense	-12.5538
▁honourabl	-12.5544
▁flun	-12.5545
rung	-12.5547
▁hearer	-12.5556
▁hallo	-12.5558
world	-12.5564
▁dispar	-12.5565
umbling	-12.5569
▁matt	-12.5571
sworth	-12.5579
ushed	-12.5582
bed	-12.5589
▁foe	-12.559
▁ties	-12.5591
▁transmit	-12.5593
▁abhorren	-12.5595
elated	-12.5597
▁admitt	-12.5608
rents	-12.5608
ola	-12.5608
▁err	-12.5614
▁inflexib	-12.5616
▁egois	-12.5617
mas	-12.562
oval	-12.5628
▁tickl	-12.563
▁meanly	-12.5631
▁corroborate	-12.5636
ames	-12.5639
▁kitte	-12.5643
▁brew	-12.5646
▁defi	-12.5648
▁disinclin	-12.5652
▁detache	-12.567
▁inaugurat	-12.5676
▁mislead	-12.5676
ging	-12.5679
▁indolen	-12.5682
▁der	-12.5688
lit	-12.5692
erty	-12.5696
▁len	-12.5696
ttled	-12.5701
▁paste	-12.5701
▁satan	-12.5705
crete	-12.5709
▁radia	-12.571
▁hides	-12.571
▁hack	-12.5715
▁wince	-12.5716
void	-12.5723
▁loo	-12.573
▁und	-12.5737
rated	-12.5739
▁shi	-12.5742
▁summ	-12.5743
tidy	-12.5746
▁allegor	-12.5747
poor	-12.5747
▁abou	-12.5748
soever	-12.5758
▁dud	-12.576
rina	-12.5767
von	-12.5774
ntry	-12.578
aw	-12.5786
▁malt	-12.5788
ought	-12.5794
▁costs	-12.5804
▁bry	-12.5809
erie	-12.5817
guard	-12.5821
▁trac	-12.5824
▁stack	-12.5841
▁eld	-12.586
▁bere	-12.5875
eeming	-12.5876
▁gloomi	-12.5877
▁fif	-12.5882
ef	-12.5886
▁shak	-12.5888
▁infer	-12.5893
▁confer	-12.5896
▁suh	-12.5897
▁requit	-12.5899
▁transfigure	-12.5901
servant	-12.5902
sham	-12.5902
daughter	-12.5905
▁overhang	-12.591
▁rube	-12.5912
cket	-12.5914
ainted	-12.5915
▁abs	-12.5915
pit	-12.5933
aternity	-12.5938
atched	-12.594
rove	-12.5941
tra	-12.5945
merle	-12.5952
▁prophe	-12.5963
▁fad	-12.5964
▁rende	-12.5965
▁wrestl	-12.5966
qua	-12.5968
▁aspire	-12.5973
▁gardening	-12.5979
cit	-12.5991
▁requir	-12.5992
▁believer	-12.6
bourg	-12.6002
▁mari	-12.6015
ex	-12.6022
▁improv	-12.6023
neys	-12.6024
▁tease	-12.6026
▁dais	-12.6036
treaties	-12.6045
nger	-12.6047
▁shov	-12.6047
rate	-12.6047
cited	-12.6048
moved	-12.6056
▁critic	-12.6057
would	-12.6059
▁peruse	-12.606
ou	-12.6061
drawn	-12.6061
bu	-12.6062
shot	-12.6066
▁ow	-12.6069
▁recurr	-12.6069
oking	-12.6075
ginal	-12.6077
▁scr	-12.6081
▁neb	-12.6089
▁strangl	-12.609
anglo	-12.609
ireless	-12.6091
▁loung	-12.6091
vision	-12.6091
ath	-12.6102
finished	-12.6103
▁stink	-12.6108
nted	-12.611
important	-12.6113
cap	-12.6116
eci	-12.6117
aken	-12.6119
ticulate	-12.6119
▁divid	-12.612
burst	-12.6128
▁commend	-12.6136
aunted	-12.614
smith	-12.6144
acquainted	-12.6154
rtle	-12.6155
ba	-12.6156
▁sophist	-12.6157
rie	-12.6164
▁obsess	-12.6169
activity	-12.6171
lley	-12.6172
champ	-12.6173
▁immo	-12.618
hospitabl	-12.6182
▁antipath	-12.6182
▁touche	-12.6183
satisfactory	-12.6184
▁chop	-12.6184
ture	-12.6187
drift	-12.6189
▁mous	-12.619
▁stil	-12.619
▁scratche	-12.6192
parallel	-12.6193
fault	-12.6195
ncluded	-12.6196
productive	-12.6196
kirk	-12.6198
lieu	-12.6203
[...]
